<unk>	0
<s>	0
</s>	0
<pad>	0
.	-2.7276
▁a	-3.21398
▁in	-3.44015
m	-3.78565
▁eine	-3.82164
▁A	-3.86888
s	-4.06585
▁Ein	-4.11443
,	-4.20443
▁the	-4.35254
▁und	-4.57077
▁mit	-4.5795
▁auf	-4.58181
▁on	-4.65719
n	-4.66134
▁Mann	-4.7056
▁is	-4.7403
▁man	-4.75368
▁and	-4.76439
▁	-4.76647
ing	-4.80757
▁of	-4.83387
▁einer	-4.86475
▁with	-4.93464
▁Eine	-4.98925
▁ein	-5.12651
▁an	-5.18338
▁der	-5.25536
e	-5.29324
▁Frau	-5.32663
-	-5.39924
▁woman	-5.42294
▁are	-5.4501
▁die	-5.47161
▁einen	-5.57299
en	-5.58721
▁to	-5.59335
▁Zwei	-5.6012
r	-5.62194
▁Two	-5.62529
▁im	-5.6332
▁at	-5.7136
▁wearing	-5.80001
▁people	-5.82728
▁von	-5.90279
▁sich	-5.93718
▁white	-5.96745
▁shirt	-5.98803
▁Mädchen	-5.9963
▁dem	-6.00144
▁young	-6.02866
▁zu	-6.05024
▁vor	-6.06328
▁black	-6.07161
▁his	-6.08291
▁while	-6.10376
er	-6.11509
▁blue	-6.13473
t	-6.15727
▁steht	-6.18624
▁red	-6.20006
▁sitting	-6.20841
▁girl	-6.23132
▁Männer	-6.23832
▁den	-6.24076
ed	-6.24257
▁dog	-6.24394
▁boy	-6.25738
▁Hund	-6.27454
▁men	-6.27494
▁sitzt	-6.27742
▁standing	-6.28716
▁Junge	-6.29169
▁playing	-6.30506
▁group	-6.35089
▁street	-6.3816
▁Straße	-6.40776
▁look	-6.41165
▁down	-6.42816
▁während	-6.43522
▁her	-6.43753
▁walking	-6.44511
▁Gruppe	-6.45712
d	-6.48324
▁hält	-6.4917
▁spielt	-6.49236
▁seine	-6.50247
▁front	-6.52265
▁bei	-6.54792
▁holding	-6.55305
y	-6.5632
▁hat	-6.56591
▁Hemd	-6.56651
▁über	-6.57105
▁Personen	-6.62012
▁das	-6.63912
▁water	-6.64549
▁The	-6.68323
▁by	-6.71676
▁for	-6.75663
▁blauen	-6.77466
▁Frauen	-6.77533
▁Kind	-6.7916
▁aus	-6.79467
▁durch	-6.80244
▁up	-6.80317
▁ihre	-6.80335
▁neben	-6.80435
to	-6.80641
▁stehen	-6.8156
▁ist	-6.81669
▁roten	-6.8169
▁weißen	-6.81838
▁Menschen	-6.82147
ir	-6.83853
▁green	-6.84276
▁sitzen	-6.84601
▁Wasser	-6.8475
▁women	-6.84812
▁spielen	-6.86364
es	-6.87701
▁Drei	-6.87967
▁one	-6.89889
▁outside	-6.90188
▁child	-6.90298
▁geht	-6.91719
▁Thre	-6.91807
▁trägt	-6.92632
▁little	-6.93339
▁um	-6.93496
▁An	-6.93498
▁large	-6.94054
▁fährt	-6.94313
▁Person	-6.9488
▁T	-6.95614
▁Kinder	-6.95784
▁through	-6.96719
▁be	-6.96978
▁brown	-7.01368
▁yellow	-7.01625
▁two	-7.02532
▁ball	-7.02844
a	-7.03123
▁macht	-7.05304
▁kleines	-7.0539
▁springt	-7.07621
▁from	-7.0829
▁zwei	-7.09355
▁entlang	-7.09674
▁person	-7.1195
▁kleiner	-7.12024
▁schwarzen	-7.12417
▁over	-7.15134
▁other	-7.15974
▁children	-7.16474
▁next	-7.17374
st	-7.174
▁Leute	-7.17494
▁small	-7.18895
▁dressed	-7.21972
▁out	-7.22787
▁orange	-7.25439
▁building	-7.25515
▁gehen	-7.25574
ly	-7.27075
▁etwas	-7.30088
▁riding	-7.30253
▁running	-7.30761
▁People	-7.31105
▁near	-7.31278
▁jacket	-7.31869
▁Hand	-7.32526
▁großen	-7.33789
▁another	-7.34093
▁around	-7.342
▁Oberteil	-7.34636
▁Man	-7.36025
▁Fahrrad	-7.37168
▁some	-7.37736
▁field	-7.38111
▁sidewalk	-7.3903
'	-7.39218
▁snow	-7.39823
▁beach	-7.41892
▁crowd	-7.42849
▁junge	-7.42988
▁pink	-7.43443
l	-7.44867
h	-7.45015
▁Mehrer	-7.45016
▁grünen	-7.45265
▁Ball	-7.46163
▁Strand	-7.46622
▁behind	-7.47026
▁läuft	-7.47052
▁sind	-7.47638
▁jumping	-7.47726
▁stands	-7.47805
▁table	-7.47806
▁Der	-7.47882
▁sits	-7.48325
o	-7.4854
▁Jacke	-7.48812
in	-7.49401
▁Hintergrund	-7.49493
▁für	-7.49493
b	-7.49662
▁Luft	-7.5054
▁grass	-7.51457
▁Freien	-7.52671
▁Jungen	-7.53527
▁background	-7.53962
▁stand	-7.53964
▁schaut	-7.54205
▁ge	-7.54291
▁anderen	-7.54638
▁Kleidung	-7.55095
▁bike	-7.5567
▁hinter	-7.57073
▁top	-7.57275
▁junger	-7.5816
▁wall	-7.58186
▁nach	-7.58261
▁S	-7.6014
▁player	-7.60143
▁city	-7.6025
▁andere	-7.60539
▁Schnee	-7.61295
p	-7.62051
al	-7.62109
f	-7.62231
▁Tisch	-7.62965
w	-7.63335
▁Gebäude	-7.64055
▁off	-7.64743
▁camera	-7.64766
▁weiße	-7.65471
veral	-7.65601
▁gelben	-7.66122
▁air	-7.66484
▁that	-7.66712
▁play	-7.66939
▁park	-7.67035
▁hoch	-7.67447
▁Hunde	-7.68226
▁Kamera	-7.68456
▁blond	-7.68603
▁Hut	-7.68991
▁sie	-7.69225
▁girls	-7.69382
▁dress	-7.69458
▁kleine	-7.70013
Shirt	-7.70879
▁Nähe	-7.71263
▁wird	-7.71268
▁guitar	-7.71767
▁hand	-7.71987
▁hold	-7.72012
▁vorbei	-7.72593
▁talking	-7.72675
▁something	-7.73091
▁hair	-7.73218
▁older	-7.75116
▁kleinen	-7.75136
▁Gras	-7.7522
▁Menschenmenge	-7.75221
▁along	-7.75761
▁dogs	-7.76112
▁er	-7.76276
u	-7.76656
▁schwarzer	-7.76782
▁car	-7.77106
▁unter	-7.7727
▁walks	-7.7755
▁Die	-7.77943
▁lady	-7.7795
▁together	-7.78227
▁soccer	-7.78228
▁Boden	-7.78785
▁food	-7.79063
▁working	-7.79218
▁gray	-7.80483
▁schwarz	-7.81009
▁t	-7.81013
▁game	-7.81326
▁ihr	-7.8161
▁picture	-7.82226
▁smiling	-7.83058
▁"	-7.83571
▁sein	-7.83633
k	-7.84074
▁rennt	-7.84524
▁has	-7.8467
▁Vier	-7.85146
▁Asian	-7.86049
▁Se	-7.86748
▁walk	-7.88065
▁Gitarre	-7.88489
▁boys	-7.88714
▁plays	-7.89007
▁zusammen	-7.89055
"	-7.89602
▁road	-7.90295
ch	-7.9164
▁sit	-7.91725
▁Four	-7.91881
▁Kleid	-7.9192
▁carry	-7.9212
▁him	-7.922
▁it	-7.92495
▁bench	-7.93368
▁blaue	-7.93537
▁head	-7.93716
▁pants	-7.94781
▁glasses	-7.94814
▁Feld	-7.9577
▁stage	-7.95781
▁rote	-7.96277
▁Stadt	-7.965
▁shorts	-7.9676
▁couple	-7.96764
▁dirt	-7.971
▁Bühne	-7.97776
▁side	-7.98233
▁herum	-7.98466
ä	-7.98754
▁tree	-7.98793
▁face	-7.98801
▁bicycle	-7.98823
▁älterer	-7.99092
▁rock	-7.99414
▁baby	-7.99482
▁Foto	-8.00333
▁Kopf	-8.00502
▁Brille	-8.00506
▁back	-8.0054
▁fahren	-8.00974
each	-8.01488
▁race	-8.01523
▁draußen	-8.01903
▁Park	-8.02263
▁Gehweg	-8.03319
▁tak	-8.04207
▁Jeans	-8.04389
▁gekleidete	-8.0452
▁old	-8.04607
▁des	-8.04638
▁boat	-8.04757
▁pool	-8.04824
▁male	-8.04886
▁long	-8.05118
▁Baby	-8.05481
an	-8.05902
▁sehen	-8.05933
i	-8.06261
▁hinunter	-8.0658
▁F	-8.06901
▁dabei	-8.08067
cross	-8.08321
▁doing	-8.08666
▁blickt	-8.08814
▁dark	-8.08815
ung	-8.10565
▁als	-8.10869
▁watching	-8.11454
le	-8.11481
▁sand	-8.11525
▁jeans	-8.11671
ü	-8.11784
▁area	-8.12101
▁Skateboard	-8.12118
▁middle	-8.12654
ge	-8.1271
▁braunen	-8.12914
▁weißer	-8.13382
▁liegt	-8.1344
▁versucht	-8.13835
▁who	-8.13915
▁Essen	-8.14631
▁he	-8.14886
▁arbeitet	-8.1503
▁Paar	-8.15036
c	-8.15381
▁Bank	-8.15432
▁laufen	-8.1553
▁wie	-8.15703
▁day	-8.16331
▁jumps	-8.16649
▁P	-8.16718
▁hands	-8.16863
▁tragen	-8.17081
▁ground	-8.17465
▁Dame	-8.18175
▁große	-8.18199
▁room	-8.18289
▁sign	-8.19092
on	-8.19209
▁ältere	-8.19501
▁performing	-8.19595
▁female	-8.19944
▁Boot	-8.20386
▁watch	-8.2073
shirt	-8.20795
▁Wand	-8.20805
▁eating	-8.20941
▁schauen	-8.21231
▁machen	-8.21232
▁guy	-8.21236
ten	-8.21483
▁lächelt	-8.21658
▁suit	-8.21674
▁coat	-8.21725
g	-8.22223
or	-8.22332
▁baseball	-8.22953
el	-8.23324
▁mouth	-8.23386
sch	-8.23691
te	-8.23752
▁brauner	-8.23778
ter	-8.24245
▁horse	-8.24319
▁using	-8.24707
▁football	-8.25146
▁line	-8.25161
▁store	-8.26143
▁striped	-8.26529
▁ihm	-8.26934
▁orangefarbenen	-8.26977
▁mountain	-8.27053
de	-8.27115
▁purple	-8.27386
▁Bürgersteig	-8.27386
▁band	-8.27524
▁microphone	-8.27841
▁go	-8.28225
▁B	-8.2864
▁arbeiten	-8.28757
▁Hose	-8.292
▁toward	-8.30145
haired	-8.30446
▁Fußball	-8.30608
▁zeigt	-8.30612
▁uniform	-8.30847
▁halten	-8.31197
oung	-8.31404
▁enjoy	-8.31553
▁sieht	-8.31554
z	-8.31721
▁train	-8.3188
▁drei	-8.32027
▁spricht	-8.32027
▁unterhalten	-8.32033
▁rot	-8.32368
▁liest	-8.32535
▁runs	-8.32635
▁under	-8.32673
et	-8.32752
▁Auto	-8.32774
▁past	-8.32794
ar	-8.32842
▁junges	-8.33311
▁rosa	-8.33468
▁blau	-8.33573
▁M	-8.33887
▁tennis	-8.33947
▁sunglasses	-8.34431
▁reading	-8.34506
▁ver	-8.352
▁three	-8.35902
re	-8.35915
▁Haaren	-8.35956
▁clothing	-8.36078
▁There	-8.37518
▁Gesicht	-8.38378
ic	-8.38396
▁Pferd	-8.38534
▁Tag	-8.38568
ischen	-8.38784
▁basketball	-8.38923
▁toy	-8.38972
▁Sonnenbrille	-8.38973
▁Helm	-8.39041
▁Holz	-8.39283
▁ocean	-8.3942
▁show	-8.39578
▁helmet	-8.3977
▁players	-8.40154
▁Bild	-8.40234
▁watches	-8.40583
▁dur	-8.40977
▁its	-8.41211
▁On	-8.41335
▁work	-8.41428
▁Hosen	-8.41506
▁restaurant	-8.42031
▁schwarze	-8.4215
▁climbing	-8.4218
ern	-8.42236
▁Sand	-8.42555
▁kids	-8.43014
ur	-8.4302
▁again	-8.43066
▁se	-8.43172
se	-8.43889
▁window	-8.44034
▁c	-8.44075
ers	-8.44289
▁Restaurant	-8.44691
▁skateboard	-8.45174
▁elder	-8.45211
▁sun	-8.45303
▁try	-8.45678
▁Felsen	-8.45784
▁team	-8.46066
▁dancing	-8.46301
us	-8.4667
▁Baum	-8.46739
▁chair	-8.46827
▁singt	-8.46877
▁grauen	-8.46929
▁throw	-8.47558
▁ihnen	-8.48164
▁ab	-8.48498
▁rides	-8.48818
▁K	-8.48921
den	-8.49338
▁jump	-8.49395
▁Mantel	-8.49644
▁Spielzeug	-8.49647
at	-8.49759
it	-8.50019
ri	-8.50174
▁Mikrofon	-8.50212
der	-8.50735
▁Fenster	-8.50783
▁outdoor	-8.508
▁blonde	-8.5129
▁posiert	-8.51358
▁floor	-8.5136
▁posing	-8.51361
▁Band	-8.51401
▁all	-8.51404
▁wooden	-8.51552
▁darauf	-8.51936
▁about	-8.51952
▁hav	-8.52016
▁U	-8.52018
tting	-8.52306
▁Shorts	-8.52535
▁cap	-8.52601
▁klettert	-8.53102
▁s	-8.53213
▁covered	-8.53266
▁grüne	-8.53364
▁Wald	-8.53682
▁führt	-8.53691
▁bag	-8.54186
▁trees	-8.54275
▁befindet	-8.54292
▁waiting	-8.54616
▁or	-8.54847
▁weiß	-8.55335
▁swimming	-8.55481
▁colorful	-8.55496
▁Spiel	-8.55818
▁light	-8.56352
▁bar	-8.56368
as	-8.56727
▁Meer	-8.57183
▁cart	-8.57295
▁construction	-8.57296
▁fence	-8.57755
▁hill	-8.57905
his	-8.58166
ro	-8.58228
▁Motorrad	-8.58518
▁workers	-8.58563
▁very	-8.58704
▁Berg	-8.58782
▁pull	-8.59147
▁ice	-8.59168
▁wirft	-8.59188
▁Arbeiter	-8.5927
▁busy	-8.59912
▁blauer	-8.60149
▁Weg	-8.60419
▁singing	-8.60518
▁Das	-8.60962
▁Woman	-8.61033
▁sehr	-8.61045
▁bus	-8.61047
▁lean	-8.6108
▁gekleideter	-8.61186
▁Haar	-8.61433
kleidung	-8.61483
▁truck	-8.61715
▁rennen	-8.61905
▁schwarzem	-8.61912
oder	-8.61925
▁Pullover	-8.6232
▁high	-8.62336
▁Raum	-8.62957
▁catch	-8.63534
ol	-8.63817
▁Spieler	-8.63997
▁cellphone	-8.64259
▁essen	-8.64339
▁H	-8.64817
▁brick	-8.64917
▁einige	-8.65188
▁Men	-8.6537
▁tan	-8.65378
▁book	-8.65868
▁Anzug	-8.66276
ig	-8.66352
▁ride	-8.66888
▁paper	-8.66915
▁Wiese	-8.66917
▁zum	-8.66995
▁laying	-8.67236
▁open	-8.67447
▁mehrere	-8.67595
lo	-8.68012
▁anderer	-8.68017
▁bright	-8.68203
▁wartet	-8.68274
▁b	-8.68311
bereitet	-8.68606
▁langen	-8.68707
▁W	-8.68772
▁clothes	-8.68992
▁Blumen	-8.69077
▁C	-8.69105
▁stick	-8.69324
▁roter	-8.69361
▁she	-8.69477
▁isst	-8.69619
▁path	-8.69642
▁Frisbee	-8.69646
▁kitchen	-8.69648
▁Bluse	-8.69648
▁market	-8.69652
▁Trikot	-8.70065
▁werden	-8.70342
ion	-8.70414
▁inside	-8.70605
▁posieren	-8.71042
▁river	-8.71042
▁metal	-8.71042
▁making	-8.71043
▁piece	-8.71087
▁springen	-8.71174
▁viele	-8.7124
▁track	-8.71443
▁get	-8.71474
▁g	-8.71499
ive	-8.71501
▁grassy	-8.71509
▁beard	-8.71568
▁Arm	-8.72094
▁umbrella	-8.72166
▁outfit	-8.72201
▁gestreiften	-8.72295
▁Kindern	-8.72405
▁E	-8.72439
▁motorcycle	-8.72885
▁shop	-8.73163
▁Oberkörper	-8.73169
▁Stuhl	-8.73169
▁perform	-8.73235
ö	-8.73842
▁re	-8.73877
▁big	-8.73907
▁body	-8.73948
▁stone	-8.73993
▁full	-8.74238
▁bunte	-8.74261
▁swing	-8.74381
▁Schild	-8.7448
▁asiatische	-8.7458
▁belebte	-8.74614
▁takes	-8.74646
▁zw	-8.74681
▁Handy	-8.75199
▁Hügel	-8.75343
▁Mütze	-8.75345
▁night	-8.75346
▁voller	-8.75484
▁Fünf	-8.76079
▁Viele	-8.76079
▁ready	-8.76839
il	-8.77209
▁Männern	-8.7737
▁tanzen	-8.776
▁run	-8.77664
▁others	-8.77819
▁Buch	-8.7838
▁Fluss	-8.79075
▁betrachtet	-8.79075
▁warten	-8.79082
▁tank	-8.79156
ng	-8.79758
▁sweater	-8.79862
ra	-8.79929
▁In	-8.80231
S	-8.80506
ige	-8.80598
▁hard	-8.80609
▁Radfahrer	-8.80612
is	-8.80775
colored	-8.80841
▁board	-8.81
▁photo	-8.81383
▁lake	-8.81387
▁Rennen	-8.81495
▁Bauarbeiter	-8.82165
▁schläft	-8.82951
▁trick	-8.82974
▁arm	-8.83642
▁Stock	-8.8375
▁zieht	-8.83811
▁house	-8.83825
▁vo	-8.84008
▁hats	-8.84018
▁painting	-8.8424
Five	-8.84324
▁Football	-8.84578
▁f	-8.84595
▁oben	-8.84669
ie	-8.84724
▁G	-8.84915
▁surround	-8.85328
▁Küche	-8.85352
▁above	-8.85352
▁Maul	-8.85356
▁alter	-8.85403
v	-8.86046
▁lehnt	-8.86165
▁reitet	-8.86165
▁dance	-8.86536
▁shirts	-8.86789
▁Seil	-8.87185
▁so	-8.87322
▁Kleinkind	-8.87424
▁Händen	-8.87679
▁wave	-8.87762
▁vest	-8.87764
▁Fuß	-8.87803
▁beobachtet	-8.87811
▁Leuten	-8.87983
▁p	-8.87984
▁backpack	-8.88598
▁miteinander	-8.89105
▁See	-8.89207
▁kick	-8.8925
▁snowy	-8.89271
▁Rucksack	-8.89484
▁object	-8.89484
▁shopping	-8.89493
looking	-8.89549
▁Bäumen	-8.8977
▁worker	-8.89825
ut	-8.89877
ist	-8.89894
▁music	-8.90191
▁paar	-8.90332
▁tanzt	-8.90332
▁beside	-8.90366
▁braune	-8.90616
▁push	-8.91741
▁Zaun	-8.92049
▁un	-8.92463
▁wo	-8.92624
▁Zug	-8.92997
▁es	-8.93005
▁Bus	-8.93134
id	-8.93153
be	-8.93159
▁braun	-8.9341
▁uniforms	-8.93467
weißer	-8.93492
▁machine	-8.93795
▁crowded	-8.93814
▁pole	-8.93849
▁Sch	-8.93899
▁smiles	-8.93916
▁bereit	-8.94382
▁Metall	-8.94613
▁befinden	-8.9468
▁männliche	-8.9468
▁schiebt	-8.9468
▁schneebedeckte	-8.9468
▁gear	-8.94681
▁toddler	-8.94682
▁event	-8.94698
▁k	-8.95398
ny	-8.95469
▁kid	-8.95512
▁haben	-8.95574
▁drinking	-8.9623
▁Haus	-8.9637
▁outdoors	-8.96447
▁Gewässer	-8.96474
▁Schwimmbecken	-8.96474
▁phone	-8.96475
▁adults	-8.96518
▁pass	-8.96936
ft	-8.97244
▁gegen	-8.97418
▁Rücken	-8.97485
▁short	-8.97511
out	-8.97652
▁da	-8.97765
▁many	-8.97786
▁set	-8.97902
▁Seite	-8.98279
▁orangefarbene	-8.98293
▁plai	-8.98302
▁sch	-8.98421
▁Basketball	-8.99081
pe	-8.99209
▁Welle	-8.99214
▁Markt	-8.9922
▁fountain	-8.99227
▁Familie	-8.99229
▁gathered	-8.99358
▁view	-9.00164
▁umgeben	-9.00169
▁costume	-9.00334
▁bet	-9.00477
▁hanging	-9.00492
▁R	-9.0061
▁kurzen	-9.00804
▁Treppe	-9.01086
▁prepare	-9.01105
▁subway	-9.01105
▁bridge	-9.01106
▁African	-9.01127
▁lot	-9.01699
hair	-9.01952
▁lächeln	-9.01975
▁Eis	-9.02015
▁fire	-9.02039
▁family	-9.02057
▁Papier	-9.02057
▁preparing	-9.03018
▁karierte	-9.03056
igen	-9.0313
▁Diese	-9.03339
▁flowers	-9.03506
age	-9.0366
im	-9.03813
▁herunter	-9.03852
▁gelbe	-9.03887
▁Reihe	-9.03989
▁verkauft	-9.03989
▁gerade	-9.0399
▁versammelt	-9.03994
li	-9.0408
Bahn	-9.04101
▁arms	-9.04176
▁rope	-9.04225
▁freie	-9.04281
▁take	-9.04657
▁Straßen	-9.04778
▁mitten	-9.04795
▁Geschäft	-9.04931
▁police	-9.04959
▁attempt	-9.0497
▁computer	-9.0497
▁beautiful	-9.04971
▁hockey	-9.05017
▁forest	-9.05019
▁away	-9.05021
▁sleeping	-9.05031
▁like	-9.0518
▁L	-9.05244
▁Musik	-9.05324
▁steps	-9.05359
▁trinkt	-9.0596
▁Children	-9.0596
▁graffiti	-9.05961
▁after	-9.05974
▁does	-9.06042
▁v	-9.06091
▁clean	-9.06229
▁fishing	-9.06752
▁D	-9.06953
▁appear	-9.0696
▁adult	-9.0727
up	-9.07346
ab	-9.07587
▁Schwarz	-9.0797
▁Teenager	-9.07984
▁pose	-9.08349
weißen	-9.0842
▁rosafarbenen	-9.08453
▁ihn	-9.08613
▁hängt	-9.0899
▁Sport	-9.08991
▁four	-9.09
▁asian	-9.09019
▁schneidet	-9.09039
▁fish	-9.09215
▁gekleidet	-9.09413
▁w	-9.09797
▁guys	-9.10007
▁Richtung	-9.10021
▁Ma	-9.10239
▁telefoniert	-9.11063
▁stairs	-9.11064
▁zur	-9.11568
▁Decke	-9.11726
▁Sprung	-9.12114
▁Zeitung	-9.12141
▁spazieren	-9.12172
▁Wagen	-9.1218
▁Be	-9.12367
ine	-9.12444
▁shoes	-9.12789
ul	-9.13079
▁malt	-9.13183
▁fangen	-9.13184
▁graue	-9.13303
▁shirtless	-9.13308
▁selling	-9.13572
▁putt	-9.13864
▁American	-9.13936
▁teil	-9.1408
▁star	-9.14098
▁Ski	-9.14225
▁setting	-9.14298
▁tall	-9.14306
▁nimmt	-9.14334
▁Stein	-9.14456
▁glass	-9.15234
▁Some	-9.15337
▁number	-9.15342
▁schwimmt	-9.15342
▁sonnige	-9.15348
▁bath	-9.15405
▁whi	-9.15414
▁gelb	-9.15692
▁alte	-9.16261
▁großer	-9.16343
▁Sonne	-9.1644
▁racing	-9.16441
▁Geländer	-9.16517
chen	-9.1655
▁Zuschauer	-9.16603
▁Fußballspieler	-9.16654
ween	-9.16661
▁com	-9.16839
▁Autos	-9.16979
▁St	-9.17094
▁slide	-9.17244
▁drink	-9.17256
▁de	-9.17297
ment	-9.17446
▁Brücke	-9.17552
▁blicken	-9.17552
▁cowboy	-9.17552
▁Kopfbedeckung	-9.17552
▁someone	-9.17577
▁schlägt	-9.17586
▁corner	-9.17592
▁Computer	-9.17595
▁wood	-9.1767
▁Hände	-9.17729
▁Weste	-9.17738
ber	-9.17837
▁ramp	-9.18678
▁Mutter	-9.18678
▁hinauf	-9.1868
▁both	-9.1868
▁parade	-9.18684
▁match	-9.18727
▁flower	-9.19256
▁Bart	-9.1938
▁Baseball	-9.19427
▁N	-9.19464
▁Schal	-9.19555
▁rocks	-9.19753
▁Shirt	-9.19808
▁Himmel	-9.19812
▁Publikum	-9.19812
▁public	-9.19812
▁volleyball	-9.19812
▁fliegt	-9.19812
▁sweatshirt	-9.19815
▁rain	-9.19833
▁party	-9.19962
▁fest	-9.20008
▁Tasche	-9.20031
▁flag	-9.20406
aged	-9.20443
▁can	-9.20461
▁have	-9.20809
▁Platz	-9.20961
▁equipment	-9.20961
▁kämpfen	-9.20961
▁ladies	-9.20961
▁hebt	-9.20961
▁tent	-9.2097
▁couch	-9.2097
▁chairs	-9.21068
▁laughing	-9.21217
▁aussehende	-9.21299
▁Graffiti	-9.21557
▁trail	-9.21823
▁grün	-9.22109
▁pick	-9.22137
gen	-9.22264
▁statue	-9.22278
▁use	-9.22317
▁Ge	-9.22526
ll	-9.22906
uch	-9.23106
▁display	-9.233
▁dunklen	-9.23499
▁hit	-9.23563
▁instruments	-9.23567
ieren	-9.23792
▁plastic	-9.24491
▁Rock	-9.24495
▁winter	-9.24496
iert	-9.24722
B	-9.24836
▁hohen	-9.24932
▁Erwachsene	-9.24962
▁vier	-9.25092
▁cross	-9.25121
ag	-9.25582
▁concrete	-9.25696
▁playground	-9.25696
▁reach	-9.25708
▁Spielplatz	-9.25708
▁Stück	-9.25713
▁cup	-9.25723
▁Hof	-9.25848
A	-9.26045
▁gestreifte	-9.26089
▁woods	-9.26336
ver	-9.26469
▁verschiedene	-9.26746
▁dock	-9.26924
▁door	-9.26933
▁Gebäudes	-9.26934
▁Hemden	-9.27593
▁poses	-9.27748
▁Auf	-9.28091
▁Glas	-9.28147
▁midair	-9.2815
▁mittlere	-9.2815
▁yard	-9.2815
▁zuschauen	-9.28188
▁Mitte	-9.28232
▁bowl	-9.28701
ve	-9.28851
▁asiatischer	-9.28878
▁skirt	-9.28928
▁Schirm	-9.29015
ste	-9.29018
▁ski	-9.29129
ling	-9.29172
ct	-9.29204
▁carrie	-9.29246
▁Zelt	-9.294
▁shovel	-9.294
▁attire	-9.294
▁Bier	-9.29421
▁Schaukel	-9.29427
ick	-9.29477
▁net	-9.29497
▁beer	-9.30081
▁pictures	-9.30498
▁davon	-9.30665
▁Regen	-9.30671
▁co	-9.307
kt	-9.30965
man	-9.31151
▁dunkelhäutige	-9.31948
▁genießt	-9.31948
▁nackte	-9.31948
▁überqueren	-9.31948
▁Mauer	-9.31948
▁sky	-9.31951
▁Dach	-9.31972
hr	-9.32424
ack	-9.32839
▁skate	-9.32858
auf	-9.3293
▁paint	-9.33152
just	-9.3324
▁Beton	-9.33241
▁Jemand	-9.33246
▁apron	-9.33246
▁Ufer	-9.33247
▁vendor	-9.33249
▁Blick	-9.33249
▁what	-9.33255
▁Fisch	-9.33287
▁seated	-9.3334
fahrer	-9.33403
▁O	-9.3354
▁reads	-9.33672
T	-9.33693
▁cutt	-9.33727
▁blondes	-9.33789
▁bed	-9.33896
spieler	-9.34142
▁benutzt	-9.34562
▁cream	-9.34562
▁distance	-9.34562
▁left	-9.34562
▁home	-9.34564
▁lacht	-9.34569
▁grill	-9.34598
▁Sp	-9.34754
▁tritt	-9.348
ork	-9.34848
rad	-9.35203
▁Kunststück	-9.35384
▁Zuschauern	-9.35698
▁Feuer	-9.35895
▁Gemüse	-9.35895
▁Surfer	-9.35895
▁school	-9.35895
▁Pool	-9.35904
▁turn	-9.36072
ish	-9.36079
▁fe	-9.36105
▁Alters	-9.36142
▁cooking	-9.36223
halb	-9.36357
▁kneel	-9.36365
▁wear	-9.36446
▁sp	-9.36847
▁do	-9.36869
ot	-9.3689
▁Rasen	-9.37247
▁Little	-9.37247
▁Sofa	-9.37247
▁cliff	-9.37247
▁newspaper	-9.37247
▁öffentliche	-9.37247
▁where	-9.37247
▁Fahrzeug	-9.37247
▁Menge	-9.37309
▁Augen	-9.37414
▁nahe	-9.37509
▁rider	-9.37648
▁st	-9.37694
top	-9.37848
ti	-9.38052
▁box	-9.38552
geschäft	-9.38607
▁Lebensmittel	-9.38616
▁Zigarette	-9.38617
▁Schürze	-9.38617
▁cigarette	-9.38617
▁unterhält	-9.38626
▁station	-9.38626
▁städtische	-9.38647
▁wash	-9.38821
▁works	-9.3898
▁Tor	-9.38981
▁gather	-9.38988
▁Mannes	-9.39282
▁art	-9.39563
▁Mensch	-9.39685
▁instrument	-9.3983
▁lila	-9.39863
▁zusieht	-9.40005
▁Girl	-9.40005
▁court	-9.40005
▁fix	-9.40008
▁Nummer	-9.40009
▁edge	-9.40012
▁stop	-9.40049
▁offene	-9.40065
▁Boy	-9.40076
▁vests	-9.40085
▁Baseballspieler	-9.40101
▁Mannschaft	-9.40109
th	-9.40319
E	-9.40538
lich	-9.40676
▁alten	-9.40677
▁Bar	-9.40682
▁bikes	-9.40903
▁cut	-9.4097
▁bags	-9.41231
ant	-9.41292
zu	-9.41414
▁gleich	-9.41414
▁blanket	-9.41415
▁zuschaut	-9.4146
▁nebeneinander	-9.41499
pa	-9.41619
▁crossing	-9.42402
ate	-9.4249
▁Uniform	-9.42494
▁jersey	-9.42551
▁make	-9.42576
au	-9.42668
ation	-9.42692
▁kurz	-9.42693
▁außer	-9.42842
▁lässt	-9.42842
▁scarf	-9.42842
▁structure	-9.42842
▁right	-9.42845
anzug	-9.42857
▁mask	-9.42859
▁zusehen	-9.43027
▁Basketballspiel	-9.43167
▁wait	-9.43217
▁bedeckt	-9.43485
▁no	-9.43604
▁Typ	-9.43907
▁Gegenstand	-9.44292
▁Women	-9.44292
▁nearby	-9.44292
▁Grill	-9.44295
▁nicht	-9.44298
▁nachts	-9.44315
▁snowboarder	-9.44406
▁filled	-9.44432
elt	-9.44739
ball	-9.44901
os	-9.45064
▁skateboarder	-9.45123
▁driving	-9.45762
▁versuchen	-9.45762
▁pile	-9.45765
▁Cowboy	-9.45777
▁Mund	-9.45781
▁hinten	-9.45782
▁Bett	-9.45784
▁place	-9.45942
weiße	-9.46315
M	-9.46367
▁flip	-9.46397
lying	-9.46535
j	-9.46705
ort	-9.4685
▁mountains	-9.46859
▁Herr	-9.4687
▁bottle	-9.47019
▁fruit	-9.47023
▁smile	-9.47049
▁V	-9.47154
▁sort	-9.47194
▁check	-9.47229
▁shore	-9.47251
▁Group	-9.47255
▁beobachten	-9.47255
▁mother	-9.47255
▁scheint	-9.47255
▁leaves	-9.47289
arious	-9.47306
▁bull	-9.47319
▁gibt	-9.47366
▁wheel	-9.47402
▁führen	-9.47405
▁großes	-9.47422
▁treten	-9.47484
▁l	-9.47573
▁lächelnde	-9.48141
▁weg	-9.48196
▁Musiker	-9.48213
▁friends	-9.48244
▁bowling	-9.48245
ous	-9.48592
▁hell	-9.48622
▁Outfit	-9.48697
▁new	-9.48708
▁Rampe	-9.48771
▁Wanderer	-9.48773
▁boots	-9.48774
▁trinken	-9.48803
▁thi	-9.48892
▁wet	-9.48953
artial	-9.48956
ell	-9.49277
▁Art	-9.49324
▁Flagge	-9.49355
ka	-9.49358
teil	-9.49622
▁parked	-9.4999
▁horses	-9.501
▁vehicle	-9.50125
▁Garten	-9.50308
▁fängt	-9.50308
▁goggles	-9.50308
▁kniet	-9.50308
▁raucht	-9.50309
▁Rodeo	-9.50309
▁Trick	-9.50309
▁Maschine	-9.50342
▁Armen	-9.50362
▁block	-9.50369
▁drums	-9.50395
cht	-9.50421
▁desk	-9.50478
▁Snowboarder	-9.50479
ert	-9.50713
▁beide	-9.50714
ier	-9.50817
▁fl	-9.50837
▁Stange	-9.50898
stand	-9.50935
▁Fotos	-9.51086
x	-9.51128
▁gold	-9.51264
▁liegen	-9.51442
▁talks	-9.51692
wagen	-9.51742
▁betrachten	-9.51871
▁bikini	-9.51871
▁concert	-9.51871
▁ladder	-9.51871
▁Ferne	-9.51871
▁Läufer	-9.51872
▁shot	-9.51875
▁time	-9.51961
▁Indian	-9.51984
▁verschneiten	-9.52074
▁Stufen	-9.52089
▁painted	-9.52107
▁Nacht	-9.52195
▁buildings	-9.52265
lt	-9.52503
▁railing	-9.52647
tur	-9.52864
▁orangen	-9.53035
▁Gehsteig	-9.53458
▁coffee	-9.53458
▁smoking	-9.53458
▁Weiß	-9.53466
ke	-9.53504
▁break	-9.53549
▁surfer	-9.53652
▁flying	-9.53774
pp	-9.53866
▁Kleine	-9.53996
op	-9.54014
ew	-9.54099
▁rocky	-9.54121
▁dresses	-9.54161
▁giv	-9.54252
weg	-9.54303
▁eyes	-9.54369
▁La	-9.54466
che	-9.54891
▁sitzende	-9.54962
▁bucket	-9.54962
▁Obst	-9.55064
▁roof	-9.55064
▁conversation	-9.55071
▁safety	-9.55071
▁bunch	-9.55072
▁Old	-9.55074
▁Eimer	-9.55075
▁Veranstaltung	-9.55121
▁Trikots	-9.55814
ping	-9.55964
▁ent	-9.56003
▁gentleman	-9.56711
▁practicing	-9.56711
▁purse	-9.56711
▁bicyclist	-9.56713
▁spectators	-9.56716
▁Tennisball	-9.56718
▁meal	-9.56741
▁unten	-9.56765
▁swinging	-9.56921
tisch	-9.56958
he	-9.56962
bei	-9.5708
▁arts	-9.57119
▁gloves	-9.57245
▁einander	-9.57476
▁flags	-9.57519
▁rail	-9.57564
Spieler	-9.57822
▁Tennis	-9.58131
▁Kostüm	-9.58226
▁opposi	-9.58377
▁Sonnenuntergang	-9.58377
▁competition	-9.58377
▁different	-9.58377
▁empty	-9.58377
▁Braut	-9.58377
▁Leiter	-9.58382
▁New	-9.58391
▁waves	-9.58475
▁listening	-9.58539
▁diese	-9.58584
▁cars	-9.58639
▁I	-9.5866
▁Laden	-9.58672
▁skier	-9.59069
board	-9.59137
tt	-9.5928
ei	-9.5947
echs	-9.59589
▁lachen	-9.5963
▁jungen	-9.59738
▁costumes	-9.59758
▁balloon	-9.60066
▁Aufschrift	-9.60072
▁Statue	-9.60072
▁greift	-9.60072
▁scene	-9.60073
▁float	-9.60076
▁Land	-9.6008
▁Skifahrer	-9.60086
▁cake	-9.6009
hört	-9.60128
▁zurück	-9.60146
▁tie	-9.6015
▁rutscht	-9.60164
▁hole	-9.6031
ill	-9.60333
▁items	-9.60566
▁lächelnd	-9.60579
▁Pa	-9.60593
weiß	-9.60652
▁lay	-9.61065
▁Rad	-9.6119
ce	-9.6141
▁Bikini	-9.61795
▁Brunnen	-9.61796
▁audience	-9.61796
▁fotografiert	-9.61796
▁hilft	-9.61796
▁scooter	-9.61796
▁spray	-9.61796
▁Netz	-9.61796
▁Vater	-9.61796
▁lawn	-9.61797
▁plate	-9.61799
▁surfboard	-9.61801
▁base	-9.61866
▁chas	-9.6193
▁blonden	-9.62022
▁lange	-9.6203
▁Kleidern	-9.6219
▁parking	-9.6232
F	-9.62666
▁skateboarding	-9.62679
▁help	-9.62726
▁younger	-9.62739
äu	-9.62774
ein	-9.62989
▁Tür	-9.63161
▁Polizist	-9.63171
ang	-9.63178
▁put	-9.63201
ock	-9.63367
ken	-9.63413
▁Schüler	-9.63551
▁rodeo	-9.63551
▁counter	-9.63551
▁Someone	-9.63557
▁bärtiger	-9.63595
▁among	-9.63611
▁onlookers	-9.63628
▁surft	-9.63692
▁Hüten	-9.63745
▁lit	-9.6391
L	-9.63953
R	-9.64221
▁there	-9.64433
▁golden	-9.64643
▁slid	-9.64727
ight	-9.64898
▁leaps	-9.65087
▁beiden	-9.65121
▁Bei	-9.6521
▁platform	-9.65336
▁unbefestigte	-9.65336
▁überquert	-9.65336
▁silver	-9.65339
▁artist	-9.65355
▁roll	-9.6536
▁Motorradfahrer	-9.65362
▁basket	-9.65395
▁leuchtend	-9.65431
▁tattoo	-9.65454
▁hot	-9.6546
▁mat	-9.65463
▁werfen	-9.6547
▁tire	-9.65481
▁stroller	-9.65551
▁pointing	-9.65632
▁Polizisten	-9.65724
▁Kostümen	-9.65744
▁Haare	-9.65809
▁vegetables	-9.65825
amp	-9.65934
▁class	-9.66028
fore	-9.66057
▁drinks	-9.66304
▁gathering	-9.66405
bar	-9.66406
▁viel	-9.66663
▁grüner	-9.66828
▁He	-9.66881
▁tradition	-9.67149
▁Kajak	-9.67155
▁collar	-9.67155
▁kayak	-9.67155
▁versammeln	-9.67155
▁cement	-9.67155
▁facing	-9.67157
▁Sweatshirt	-9.67179
▁feet	-9.67185
▁Vor	-9.67188
▁bird	-9.67268
▁legt	-9.67335
▁gut	-9.67424
pf	-9.67881
laden	-9.67926
P	-9.68134
bereiten	-9.68159
all	-9.68185
if	-9.68624
▁sports	-9.68681
einander	-9.68717
▁competing	-9.69006
▁gemeinsam	-9.69006
▁violin	-9.69006
▁Rutsche	-9.69006
▁Korb	-9.69007
▁wedding	-9.69007
▁Leine	-9.69016
▁Six	-9.69017
▁Rot	-9.69024
▁Volleyball	-9.69149
▁nehmen	-9.69199
▁Roller	-9.69258
▁Damen	-9.69542
▁speaking	-9.69637
▁gelbem	-9.6973
ty	-9.69773
▁reden	-9.6979
▁Re	-9.69867
▁row	-9.70087
▁Arme	-9.70427
▁biker	-9.70442
platz	-9.7067
▁Arbeit	-9.70691
▁Mo	-9.70824
▁bicycles	-9.70861
▁business	-9.70893
▁classroom	-9.70893
▁lesen	-9.70896
▁rothaarige	-9.70897
▁laptop	-9.70902
▁ganz	-9.70902
ze	-9.70916
▁lap	-9.70924
ther	-9.70945
▁kommt	-9.71018
▁amerikanische	-9.71019
und	-9.71052
▁huge	-9.71054
▁Kids	-9.71144
eln	-9.71149
▁Team	-9.71227
ub	-9.71293
▁son	-9.71728
▁jackets	-9.72057
▁talk	-9.72223
rau	-9.7234
▁Arbeits	-9.7243
▁Regenschirm	-9.7243
way	-9.7255
aus	-9.7274
icht	-9.72799
▁Pfad	-9.72816
▁clown	-9.72816
▁genießen	-9.72816
▁jüngere	-9.72816
▁Parade	-9.72816
▁schreibt	-9.72816
▁Waren	-9.72818
▁Ende	-9.72819
▁lift	-9.72864
▁screen	-9.72876
▁guckt	-9.72977
▁animal	-9.73032
▁stellt	-9.73152
▁surfing	-9.73423
▁students	-9.73549
▁Da	-9.73558
▁was	-9.73575
▁sings	-9.73581
innen	-9.73662
▁Getränk	-9.73673
spiel	-9.73717
K	-9.73925
▁climbs	-9.74145
▁Geschäfts	-9.74262
▁Schutzhelm	-9.74397
▁Tanz	-9.74441
▁Westen	-9.74474
▁Schlagzeug	-9.74489
▁close	-9.74544
▁J	-9.74712
▁suits	-9.74713
▁Mikrophon	-9.74777
▁leeren	-9.74777
▁mirror	-9.74777
▁canoe	-9.74778
▁military	-9.74779
▁bride	-9.74822
▁alley	-9.74903
▁Soldaten	-9.74939
▁lilafarbene	-9.74979
▁Fa	-9.75005
▁Stühlen	-9.75014
▁leap	-9.75206
▁kissing	-9.75359
ler	-9.75385
▁helmets	-9.75406
▁Pferde	-9.75817
▁give	-9.75828
▁rosafarbene	-9.75838
mitten	-9.7593
iger	-9.75933
bo	-9.76554
▁Vogel	-9.76777
▁electric	-9.76777
▁ohne	-9.76777
▁writing	-9.76777
▁Umgebung	-9.76777
▁same	-9.76779
▁streckt	-9.76779
▁Baustelle	-9.76801
▁Wellen	-9.76814
▁walkway	-9.76816
▁end	-9.76865
▁teams	-9.77039
▁shoulder	-9.77082
▁fighting	-9.77372
bahn	-9.77635
▁asiatischen	-9.77643
▁beige	-9.77777
iz	-9.77839
▁voll	-9.77881
▁warm	-9.78139
sten	-9.78242
bank	-9.78759
gt	-9.78805
▁Kampfsport	-9.78811
▁country	-9.78813
▁Krawatte	-9.78818
▁schwingt	-9.78818
▁sprechen	-9.78818
▁kaufen	-9.78818
▁weibliche	-9.78818
▁chef	-9.78819
▁sunset	-9.7882
▁gegenüber	-9.78822
▁Badeanzug	-9.78823
▁nur	-9.78849
▁cat	-9.78876
▁Konzert	-9.78917
▁we	-9.79087
iant	-9.79126
▁sport	-9.79189
▁afrikanische	-9.79212
▁runner	-9.79223
▁gun	-9.79231
go	-9.79234
▁riesigen	-9.79283
▁Erwachsener	-9.79458
▁chase	-9.79556
▁allein	-9.79821
▁Schuhen	-9.7989
▁Instrument	-9.80013
enden	-9.80577
ak	-9.80684
less	-9.80818
▁Gegend	-9.80901
▁Laptop	-9.80901
▁Sohn	-9.80901
▁barefoot	-9.80901
▁urban	-9.80901
▁waving	-9.80901
gerät	-9.80902
▁hin	-9.80935
▁Parkplatz	-9.80938
▁shav	-9.80981
▁Handschuhen	-9.81096
▁sc	-9.81222
▁waits	-9.8128
▁Uniformen	-9.81459
▁Erwachsenen	-9.81531
C	-9.81629
tries	-9.82123
isch	-9.82386
schen	-9.8244
▁leg	-9.82645
cal	-9.82748
▁Ab	-9.82999
kostüm	-9.83029
▁Party	-9.83029
▁Straßenecke	-9.83029
▁leash	-9.83029
▁Schreibtisch	-9.8303
▁starrt	-9.8303
▁Straßenrand	-9.83034
▁Stand	-9.83037
▁Bereich	-9.83038
▁foot	-9.83042
ap	-9.83044
▁Rand	-9.83046
▁marathon	-9.83076
▁Kinderwagen	-9.83161
▁di	-9.8323
▁start	-9.83302
▁pot	-9.83393
▁singen	-9.83443
▁ear	-9.83492
ich	-9.83499
▁land	-9.83579
▁d	-9.83586
▁Wa	-9.83799
▁officer	-9.83807
▁alle	-9.83914
▁fun	-9.84156
▁pinkfarbene	-9.84272
▁bald	-9.84361
blauen	-9.84772
▁Snowboard	-9.84931
▁Bergen	-9.84999
▁photograph	-9.85134
▁Le	-9.85148
▁Schoß	-9.85203
▁course	-9.85203
▁umarmt	-9.85203
▁garden	-9.85203
▁gymnast	-9.85203
▁Geländemotorrad	-9.85203
▁Pause	-9.85204
▁schlagen	-9.85205
▁Kanu	-9.85205
▁cloud	-9.85205
▁jagt	-9.85205
▁father	-9.85209
▁mix	-9.8521
▁Base	-9.8521
▁golf	-9.85223
▁Badehose	-9.85228
▁seen	-9.85269
▁Künstler	-9.8527
▁Bu	-9.85324
▁hoop	-9.85353
▁Koch	-9.85436
lu	-9.85491
ure	-9.85493
▁makes	-9.85631
▁swim	-9.85654
▁says	-9.85723
tet	-9.85726
▁älteren	-9.85798
ff	-9.85961
▁blowing	-9.86014
▁bubbles	-9.86071
▁pinkfarbenen	-9.86186
we	-9.86266
▁Sie	-9.86515
▁blow	-9.86602
▁Skateboarder	-9.86747
▁sell	-9.86843
▁Sa	-9.86955
▁bat	-9.8708
▁Ko	-9.87091
▁gelbes	-9.8715
▁ma	-9.87165
▁life	-9.87404
▁grasbewachsene	-9.87425
▁repariert	-9.87425
▁Kuchen	-9.87425
▁dunkelhaarige	-9.87425
▁happy	-9.87426
▁leather	-9.87426
▁meat	-9.87442
▁five	-9.87476
▁females	-9.87505
▁skating	-9.87514
▁klettern	-9.87514
▁ange	-9.87558
▁fast	-9.87568
▁heraus	-9.87616
▁photographer	-9.87764
▁Bau	-9.88248
▁outfits	-9.88341
▁kurze	-9.88376
▁way	-9.88422
▁fa	-9.88609
ck	-9.88692
▁cloth	-9.8877
ue	-9.88791
▁fallen	-9.88831
▁knee	-9.88908
▁Tänzer	-9.89315
▁drive	-9.89318
uff	-9.89595
▁Spiegel	-9.89694
▁Müll	-9.89697
▁Construction	-9.89698
▁Plastik	-9.89698
▁Schatten	-9.89698
▁Schüssel	-9.89698
▁Telefon	-9.89698
▁Vordergrund	-9.89698
▁foreground	-9.89698
▁gegnerische	-9.89698
▁microscope	-9.89698
▁verkaufen	-9.89699
▁alone	-9.89701
▁balloons	-9.89706
art	-9.89732
▁lead	-9.89803
▁Fahrradfahrer	-9.89809
ische	-9.89927
▁brightly	-9.89936
▁Jugendlicher	-9.89961
▁roller	-9.89991
▁deck	-9.90329
ade	-9.90599
▁musicians	-9.90647
ß	-9.90715
▁helping	-9.90779
side	-9.90812
▁card	-9.91012
▁Schulter	-9.91086
rennen	-9.91144
▁weitere	-9.91274
liche	-9.91332
sitz	-9.91413
▁performer	-9.91484
▁sta	-9.915
ted	-9.91533
▁Bahn	-9.91754
gruppe	-9.91763
▁Gebäuden	-9.91788
▁hang	-9.91895
▁log	-9.91916
▁Clown	-9.92023
▁Schlitten	-9.92023
▁Schläger	-9.92023
▁Surfbrett	-9.92023
▁asleep	-9.92023
▁headphones	-9.92023
▁repair	-9.92023
▁stunt	-9.92023
▁sculpture	-9.92024
▁putzt	-9.92025
▁braunhaarige	-9.92026
▁gym	-9.92034
▁raft	-9.92034
▁gegeneinander	-9.92039
▁made	-9.92067
▁Finger	-9.92069
▁Fell	-9.92069
▁desert	-9.92081
▁Blau	-9.92104
▁Kunden	-9.92148
▁signs	-9.92187
▁goal	-9.92298
tro	-9.92364
▁well	-9.92375
▁site	-9.92463
▁Cheerleader	-9.92661
hut	-9.92937
▁legs	-9.93924
▁lights	-9.93942
▁Taschen	-9.93995
▁office	-9.94031
▁mud	-9.94249
▁brush	-9.94287
po	-9.94324
▁Objekt	-9.94404
▁Mikroskop	-9.94404
▁Schnauze	-9.94404
▁stadium	-9.94404
▁Overall	-9.94404
▁diving	-9.94404
▁Sandalen	-9.94405
▁Küste	-9.94409
▁sandals	-9.9441
▁jemandem	-9.94412
▁balanciert	-9.94412
▁doorway	-9.94416
▁sled	-9.94436
▁ring	-9.94564
vi	-9.94705
▁musical	-9.94801
▁Geige	-9.94906
▁drawing	-9.94935
do	-9.9499
▁Fahrrädern	-9.95019
▁Es	-9.95221
▁umbrellas	-9.95389
▁speak	-9.95449
▁not	-9.95699
fahren	-9.95801
fall	-9.95815
▁Co	-9.96114
▁ob	-9.96245
▁part	-9.96426
▁Fußballspiel	-9.96431
▁bemalt	-9.96469
▁ba	-9.96588
▁drum	-9.96697
ok	-9.96799
▁project	-9.96816
markt	-9.96833
▁video	-9.9684
▁Marathon	-9.96841
▁Büro	-9.96843
▁Chinese	-9.96843
▁Kaffee	-9.96843
▁Klassenzimmer	-9.96843
▁Mobiltelefon	-9.96843
▁Schaufel	-9.96843
▁accordion	-9.96843
▁athlete	-9.96843
▁overlook	-9.96843
▁beugt	-9.96843
▁Kirche	-9.96844
▁Schiedsrichter	-9.96845
▁winkt	-9.96847
hiking	-9.96848
▁stuff	-9.96854
▁grau	-9.96856
▁setzt	-9.96857
▁Schlange	-9.96859
▁Licht	-9.96863
▁multicolored	-9.96873
▁Einkaufswagen	-9.9688
▁Flugzeug	-9.96899
▁Footballspieler	-9.96922
▁Stiefeln	-9.97034
▁singer	-9.97054
▁Erde	-9.97081
▁ziehen	-9.97114
▁string	-9.97333
▁Bein	-9.97418
▁anderes	-9.9745
our	-9.97488
▁falling	-9.97565
▁heads	-9.97707
▁move	-9.97901
ug	-9.98004
ies	-9.98018
▁farbenfrohe	-9.98129
O	-9.98129
▁Jacken	-9.98347
▁h	-9.98458
▁officers	-9.98827
▁climb	-9.98907
▁teenage	-9.9897
ian	-9.9911
ben	-9.99129
▁hellhäutige	-9.99209
▁decorat	-9.99343
▁includ	-9.99343
▁Zimmer	-9.99343
▁church	-9.99343
▁dreht	-9.99343
▁fällt	-9.99343
▁traffic	-9.99343
▁Fleisch	-9.99343
▁Worker	-9.99344
▁shallow	-9.99344
▁booth	-9.99344
▁Felswand	-9.99345
▁Halsband	-9.99346
▁performance	-9.99354
▁Katze	-9.99362
▁eat	-9.99365
▁daughter	-9.99399
▁ru	-9.99449
haus	-9.99478
dessen	-9.99552
ong	-9.99621
ake	-9.99627
ah	-9.99726
kl	-9.99793
▁Pferden	-9.99893
▁van	-10.0003
eck	-10.0023
▁swings	-10.0025
▁Bilder	-10.004
▁sticks	-10.0056
Spiel	-10.0057
▁Ka	-10.0094
▁plants	-10.0097
▁skiing	-10.0101
▁hohe	-10.0129
▁Schuhe	-10.0161
▁khaki	-10.0178
▁Freunde	-10.0179
lei	-10.018
▁faces	-10.0183
tasche	-10.0184
▁Fußgänger	-10.0191
▁Gerüst	-10.0191
▁Höhe	-10.0191
▁Karate	-10.0191
▁fünf	-10.0191
▁küssen	-10.0191
▁observe	-10.0191
▁below	-10.0191
▁zeigen	-10.0191
▁reiten	-10.0191
▁digging	-10.0191
▁protect	-10.0191
▁davor	-10.0192
▁kn	-10.0194
▁pond	-10.0194
▁BM	-10.0195
▁bis	-10.0198
tag	-10.0205
▁pal	-10.0209
▁hammer	-10.0212
▁hellbrauner	-10.0227
king	-10.0233
erin	-10.0236
▁Tasse	-10.0238
stück	-10.024
grünen	-10.025
▁hose	-10.0255
▁fr	-10.0269
▁friend	-10.03
▁ei	-10.0315
▁surf	-10.0317
zug	-10.0341
▁me	-10.0344
G	-10.0368
gel	-10.038
led	-10.0384
ausrüstung	-10.0425
jacke	-10.045
▁Verkehr	-10.0454
▁Kreis	-10.0454
▁Orange	-10.0454
▁Seifenblasen	-10.0454
▁aussieht	-10.0454
▁küsst	-10.0454
▁schmutzige	-10.0454
▁Tanktop	-10.0454
▁hugging	-10.0454
▁erwachsene	-10.0454
▁fan	-10.0455
▁inspect	-10.0455
▁hoodie	-10.0456
▁pier	-10.0457
▁Loch	-10.0458
▁Hockey	-10.0461
▁Kai	-10.0462
▁nose	-10.0462
reich	-10.0464
▁upside	-10.0467
▁tunnel	-10.0469
▁passes	-10.0487
uck	-10.0501
▁chinesische	-10.0504
▁tables	-10.0505
▁relaxing	-10.0506
▁slope	-10.051
▁indische	-10.0516
hi	-10.0523
▁shoe	-10.0554
▁ho	-10.0562
▁toys	-10.0569
▁redet	-10.0571
▁dass	-10.0577
her	-10.0595
▁Akkordeon	-10.0608
hand	-10.0635
I	-10.0637
▁cow	-10.0655
▁seem	-10.0662
gebäude	-10.0714
feld	-10.0716
▁hellbraune	-10.072
maschine	-10.0724
▁Christmas	-10.0724
▁Spaß	-10.0724
▁Ecke	-10.0724
▁geparkt	-10.0724
▁brunette	-10.0724
▁Maske	-10.0725
▁Black	-10.0725
▁flies	-10.0725
▁Spielfeld	-10.0726
▁Dog	-10.0727
▁pour	-10.0727
▁dry	-10.0731
W	-10.0736
▁Pflanzen	-10.0749
▁sweeping	-10.0759
▁sleeps	-10.0761
▁Reifen	-10.0768
▁Ver	-10.078
lf	-10.0793
▁dancers	-10.0857
▁Bo	-10.0876
▁pro	-10.0895
▁Bäume	-10.0907
▁kiss	-10.092
▁fight	-10.0922
▁la	-10.0928
▁cane	-10.095
▁mov	-10.0953
froamerikanische	-10.1002
▁Lastwagen	-10.1002
▁Mountainbike	-10.1002
▁Stadion	-10.1002
▁Teppich	-10.1002
▁Tochter	-10.1002
▁conversing	-10.1002
▁device	-10.1002
▁stream	-10.1002
▁swimsuit	-10.1002
▁telescope	-10.1002
▁print	-10.1002
▁Guy	-10.1002
▁Schlamm	-10.1002
▁Teich	-10.1002
▁cafe	-10.1002
▁Schwimmbrille	-10.1002
▁Skater	-10.1002
▁Teller	-10.1002
▁Rennstrecke	-10.1002
▁teeth	-10.1002
▁Wüste	-10.1002
▁Stoff	-10.1002
fuß	-10.1002
▁lone	-10.1003
▁neck	-10.1003
▁Handtasche	-10.1009
▁mid	-10.1014
wand	-10.1015
▁rechte	-10.1024
▁loca	-10.1028
▁Oberteilen	-10.1031
▁round	-10.1039
war	-10.1044
▁trunks	-10.1069
▁resting	-10.1077
▁Po	-10.1084
▁schönen	-10.1096
▁plant	-10.1105
▁Schultern	-10.1118
▁fall	-10.113
gelben	-10.1135
▁bend	-10.1157
▁beleuchtete	-10.1164
▁Flasche	-10.119
▁schöne	-10.1192
N	-10.1202
band	-10.1203
▁Tischen	-10.1222
▁Caf	-10.1236
▁linke	-10.1249
▁Winter	-10.1285
▁Unter	-10.1287
▁Hula	-10.1288
▁Trommel	-10.1288
▁karate	-10.1288
▁kocht	-10.1288
▁wrestling	-10.1288
▁Kappe	-10.1288
▁jogging	-10.1288
▁Haufen	-10.1288
▁frame	-10.1288
schild	-10.1288
▁kind	-10.1288
▁gepflasterten	-10.1288
▁infant	-10.1288
▁racket	-10.1288
▁square	-10.1288
line	-10.1288
▁underneath	-10.1289
▁mural	-10.1289
▁cold	-10.1289
▁stack	-10.129
▁town	-10.1292
▁camp	-10.1293
▁how	-10.1293
▁fair	-10.13
▁held	-10.1302
▁formal	-10.1307
▁splashing	-10.1307
H	-10.1321
▁balanc	-10.1322
▁name	-10.1347
▁Lad	-10.1355
ard	-10.1368
▁Tier	-10.1386
▁points	-10.1388
▁vi	-10.1391
▁guard	-10.14
hang	-10.1409
team	-10.141
▁schwimmen	-10.1416
and	-10.146
tier	-10.1479
▁males	-10.1479
acht	-10.1492
ker	-10.1492
▁hu	-10.1493
roten	-10.1515
mann	-10.1523
▁pin	-10.1536
ift	-10.1537
▁balance	-10.1545
▁stroll	-10.1547
len	-10.1559
straße	-10.1577
stuhl	-10.1581
▁Balkon	-10.1582
▁Klippe	-10.1582
▁Landschaft	-10.1582
▁Zähne	-10.1582
▁entspannt	-10.1582
▁felsige	-10.1582
▁magazine	-10.1582
▁themselves	-10.1582
Hoop	-10.1582
▁hula	-10.1582
▁umarmen	-10.1582
▁neon	-10.1582
▁unterwegs	-10.1582
▁schaukelt	-10.1582
▁hängen	-10.1582
▁Small	-10.1582
▁Nase	-10.1582
▁Couch	-10.1583
▁lab	-10.1583
▁curly	-10.1584
▁live	-10.1585
▁straw	-10.1585
partment	-10.1586
▁Parkbank	-10.1587
▁tief	-10.159
▁asiatisch	-10.1592
▁finish	-10.1596
▁nap	-10.1618
▁ex	-10.164
▁Farben	-10.1653
ef	-10.1657
▁hellen	-10.1658
ble	-10.1675
▁bu	-10.1687
▁eye	-10.1693
▁image	-10.17
▁cyclist	-10.171
▁gate	-10.1713
ac	-10.1719
▁Freunden	-10.1722
▁wunderschöne	-10.1725
▁hiker	-10.1726
▁Schwimmer	-10.1727
off	-10.1727
▁ra	-10.1735
▁ro	-10.1738
▁post	-10.1754
bent	-10.1762
bung	-10.1785
▁pan	-10.1793
D	-10.1796
schwarzer	-10.1808
bau	-10.1815
▁cra	-10.182
▁shoulders	-10.1839
▁present	-10.1884
fahrzeug	-10.1884
▁Blatt	-10.1885
▁Gasse	-10.1885
▁Gegenstände	-10.1885
▁Trampolin	-10.1885
▁circle	-10.1885
▁crosswalk	-10.1885
▁dinner	-10.1885
▁heavy	-10.1885
▁picnic	-10.1885
▁produce	-10.1885
▁trampoline	-10.1885
▁wetsuit	-10.1885
▁ärmellose	-10.1885
▁clear	-10.1885
▁nice	-10.1885
▁carnival	-10.1885
▁damit	-10.1885
▁bedient	-10.1885
▁deep	-10.1885
▁button	-10.1886
▁crying	-10.1886
▁Reiter	-10.1886
▁Sachen	-10.1886
▁makeup	-10.1887
▁Hang	-10.1888
▁chain	-10.1889
▁Feldweg	-10.1892
▁sheet	-10.1896
▁dunkler	-10.1906
▁Touristen	-10.1908
hen	-10.1908
▁Sitzen	-10.1913
▁see	-10.1929
▁Steine	-10.1932
▁wooded	-10.1939
▁Schutzhelmen	-10.1944
▁links	-10.1966
▁violetten	-10.1973
▁shin	-10.1977
▁type	-10.1983
▁sea	-10.1994
▁individuals	-10.1996
▁wire	-10.2002
▁schlafen	-10.2008
▁rest	-10.2031
▁seat	-10.2035
▁Flaggen	-10.2078
▁Schuh	-10.208
▁Kopfhörer	-10.2101
▁wander	-10.2104
▁Pe	-10.2111
ierte	-10.2114
▁Helmen	-10.2116
ace	-10.2122
▁pack	-10.2128
one	-10.213
▁Berge	-10.2181
▁coats	-10.2187
korb	-10.2196
veranstaltung	-10.2197
▁Springbrunnen	-10.2197
▁Wäsche	-10.2197
▁gezogen	-10.2197
▁hüpft	-10.2197
▁jongliert	-10.2197
▁load	-10.2197
▁practice	-10.2197
▁professional	-10.2197
▁trash	-10.2197
▁travel	-10.2197
▁wheelchair	-10.2197
▁überfüllte	-10.2197
▁wurde	-10.2197
▁design	-10.2197
▁center	-10.2198
▁sewing	-10.2198
▁Bullen	-10.2198
▁surface	-10.2198
boden	-10.2198
▁verwendet	-10.2198
▁hinab	-10.2199
▁Laub	-10.22
▁Strecke	-10.2202
▁Skiern	-10.2204
▁steigt	-10.2213
▁holt	-10.2216
▁Schul	-10.2217
▁closed	-10.2222
▁pitcher	-10.2232
▁grind	-10.2234
ated	-10.2243
▁Fahnen	-10.2245
itz	-10.2249
▁driver	-10.225
▁covering	-10.2252
▁Gr	-10.2255
▁wrapp	-10.2257
▁opening	-10.2267
▁bra	-10.2277
▁members	-10.2285
lichen	-10.2303
▁streets	-10.2316
▁Schwimm	-10.2349
Shirts	-10.2354
gehen	-10.2393
ien	-10.2394
ical	-10.2394
ary	-10.2404
park	-10.2455
ond	-10.2465
ller	-10.2471
skinn	-10.2475
▁Jugendliche	-10.2482
▁Mahlzeit	-10.252
▁Veranda	-10.252
▁balcony	-10.252
▁beverage	-10.252
▁blouse	-10.252
▁bottom	-10.252
▁himself	-10.252
▁lunch	-10.252
▁schießt	-10.252
▁schüttelt	-10.252
▁softball	-10.252
▁Umzug	-10.252
▁schnell	-10.252
▁third	-10.252
▁crouche	-10.252
▁speed	-10.252
mantel	-10.252
▁rasiert	-10.252
▁kauft	-10.252
▁sale	-10.2521
▁rechts	-10.2521
▁duck	-10.2521
▁peer	-10.2523
▁taken	-10.2525
lam	-10.255
▁sh	-10.2563
▁poster	-10.2566
▁tricks	-10.2576
▁Teil	-10.2591
land	-10.2676
▁indoor	-10.2677
▁shak	-10.2681
▁Ch	-10.2719
▁robe	-10.2738
▁cook	-10.2754
▁violette	-10.2762
light	-10.2774
▁Asiate	-10.2775
voll	-10.2787
▁Rück	-10.2815
▁ta	-10.2823
▁gra	-10.2825
▁Zeit	-10.2845
werk	-10.2853
▁Geschenk	-10.2853
▁advertisement	-10.2853
▁berührt	-10.2853
▁bläst	-10.2853
▁fotografieren	-10.2853
▁geschlossene	-10.2853
▁reparieren	-10.2853
▁staircase	-10.2853
fahrt	-10.2853
▁Bücher	-10.2853
▁Lkw	-10.2853
▁London	-10.2853
▁Wurf	-10.2853
▁komplett	-10.2853
▁ruht	-10.2853
▁most	-10.2853
▁Anzügen	-10.2853
taucht	-10.2854
▁steep	-10.2854
▁verfolgt	-10.2854
arrow	-10.2854
▁Cowboyhut	-10.2854
▁Kopftuch	-10.2854
▁Sportler	-10.2856
▁bekommt	-10.2856
eign	-10.2856
▁swimmer	-10.2856
▁Blond	-10.2857
▁heben	-10.2858
▁dritte	-10.286
que	-10.2861
▁tile	-10.2863
▁festival	-10.2867
▁waterfall	-10.2871
▁Personengruppe	-10.2873
hund	-10.2877
▁hellblauen	-10.2879
▁Getränke	-10.2881
▁boxes	-10.2881
▁dances	-10.2884
▁grillt	-10.2908
▁Wein	-10.293
eht	-10.294
alter	-10.2971
unk	-10.3008
▁Instrumenten	-10.3009
"-	-10.3018
▁Sieb	-10.3032
roll	-10.3047
▁Er	-10.3064
par	-10.3089
▁shar	-10.3145
▁war	-10.315
▁Roll	-10.3154
▁jemand	-10.3158
▁pitch	-10.3179
▁Instrumente	-10.3187
▁garb	-10.3197
▁grocery	-10.3198
▁hockt	-10.3198
▁keyboard	-10.3198
▁puddle	-10.3198
▁saxophone	-10.3198
▁fresh	-10.3198
▁reinigt	-10.3198
▁motorcyclist	-10.3198
▁towel	-10.3198
▁podium	-10.3199
bereich	-10.32
▁geschäftige	-10.32
anz	-10.3203
▁Wettkampf	-10.3206
▁wind	-10.3207
▁overalls	-10.3209
▁paddle	-10.3211
▁schaufel	-10.3215
▁paved	-10.3221
▁racer	-10.3228
mütze	-10.3259
▁po	-10.3263
halten	-10.3267
▁brünette	-10.3269
▁ha	-10.3269
▁Tennisspieler	-10.3273
▁tri	-10.3278
▁shape	-10.328
▁per	-10.3295
▁Str	-10.3295
▁Bade	-10.3301
▁Beinen	-10.3302
▁skis	-10.3326
▁Im	-10.3328
ite	-10.3329
rampe	-10.3348
▁jean	-10.3383
▁tub	-10.3387
▁Schw	-10.3394
laufen	-10.3406
geht	-10.3422
▁Renn	-10.3452
▁catche	-10.3461
covered	-10.3469
▁swims	-10.3476
▁Ring	-10.3483
du	-10.3493
▁Hochzeit	-10.3507
▁Sänger	-10.3507
rot	-10.3514
bild	-10.352
▁bow	-10.3524
▁Gelände	-10.3543
▁dancer	-10.3546
▁Schlag	-10.3554
schaukel	-10.3555
▁Gebiet	-10.3555
▁Hindernis	-10.3555
▁Projekt	-10.3555
▁gentlemen	-10.3555
▁hurdle	-10.3555
▁laundry	-10.3555
▁mound	-10.3555
▁pipe	-10.3555
▁schreit	-10.3555
▁öffnet	-10.3555
▁curb	-10.3555
▁porch	-10.3555
▁stool	-10.3555
▁tongue	-10.3555
▁ledge	-10.3555
▁Salto	-10.3555
▁Zunge	-10.3555
▁bauen	-10.3556
▁Matte	-10.3556
▁Ort	-10.3556
▁figure	-10.3556
▁airplane	-10.3556
▁Asiatin	-10.3557
▁Bach	-10.3558
▁flight	-10.3558
▁vorbeigehen	-10.356
▁Here	-10.356
▁dust	-10.3565
▁Wasserfall	-10.3571
▁cool	-10.3572
▁position	-10.3573
▁einsame	-10.3574
▁traditioneller	-10.3585
▁gucken	-10.3586
▁marching	-10.3599
▁wine	-10.36
▁wad	-10.36
▁Hauses	-10.36
▁begin	-10.3606
ischer	-10.361
▁weit	-10.3619
▁climber	-10.3626
▁customers	-10.3636
▁lachend	-10.3651
▁fingers	-10.3661
▁stark	-10.3666
▁laugh	-10.3668
▁cla	-10.367
▁Asiaten	-10.3674
ries	-10.3678
▁Kerl	-10.369
zeug	-10.3697
hose	-10.3697
▁gefüllt	-10.3719
▁bit	-10.3726
▁teenagers	-10.3726
▁tube	-10.3735
sehen	-10.3743
▁robes	-10.3746
▁hikers	-10.3765
▁examin	-10.377
▁cha	-10.3774
stellen	-10.3788
▁nachde	-10.3798
▁teenager	-10.3807
form	-10.3821
▁snowboard	-10.3826
▁Fahrräder	-10.383
last	-10.3838
vor	-10.3843
▁draw	-10.3847
com	-10.3847
schwarzen	-10.3859
▁Hi	-10.3863
▁oriental	-10.3865
cker	-10.3872
ral	-10.3886
▁Lauf	-10.3889
▁Ohr	-10.3889
▁grab	-10.3893
ial	-10.3893
helm	-10.3894
▁Do	-10.3896
▁birds	-10.3903
▁Groß	-10.3906
▁Sta	-10.3913
kleid	-10.3922
▁Hals	-10.3925
▁Schlauch	-10.3925
▁Geld	-10.3925
▁Gepäck	-10.3926
▁Gewehr	-10.3926
▁Kurve	-10.3926
▁aufblasbare	-10.3926
▁befestigt	-10.3926
▁groom	-10.3926
▁piano	-10.3926
▁schneiden	-10.3926
▁untersucht	-10.3926
▁wäscht	-10.3926
▁backyard	-10.3926
▁einzelne	-10.3926
▁Becher	-10.3926
▁modern	-10.3926
▁kann	-10.3926
▁wild	-10.3926
▁pair	-10.3926
▁Lederjacke	-10.3926
▁paddling	-10.3926
▁Abend	-10.3926
▁Straßenkünstler	-10.3926
▁serve	-10.3926
▁Gold	-10.3927
▁polo	-10.3927
▁Winterkleidung	-10.3928
schlag	-10.3928
▁attached	-10.393
▁arena	-10.3937
arbeit	-10.3938
▁Hockeyspieler	-10.3939
hemd	-10.394
▁Tunnel	-10.3941
ollege	-10.3951
▁belt	-10.3955
▁evening	-10.3956
▁sleeve	-10.3974
▁ship	-10.3975
▁steigen	-10.398
▁frisch	-10.3983
▁lies	-10.3989
▁We	-10.3998
▁shooting	-10.4003
ally	-10.4039
▁stra	-10.4054
rzt	-10.4059
▁colors	-10.4065
▁Feuerwehr	-10.4076
▁Fallschirm	-10.4098
eiter	-10.4115
▁shade	-10.4138
▁books	-10.4142
▁Steinen	-10.4178
▁einge	-10.4179
▁flor	-10.4181
ance	-10.4188
▁Freund	-10.4189
▁Di	-10.4216
cy	-10.4219
Fahrer	-10.4222
▁verkleidet	-10.4225
gu	-10.4235
▁Ballon	-10.4241
▁Li	-10.4241
▁Teams	-10.4271
▁Ra	-10.4286
▁fold	-10.4291
stellung	-10.4307
▁Child	-10.431
▁Verkauf	-10.431
▁Baumstamm	-10.431
▁Jockey	-10.431
▁Kissen	-10.431
▁Passanten	-10.431
▁Terrasse	-10.431
▁Zeitschrift	-10.431
▁bandanna	-10.431
▁camouflage	-10.431
▁darunter	-10.431
▁fabric	-10.431
▁gießt	-10.431
▁luggage	-10.431
▁opponent	-10.431
▁pavement	-10.431
▁pillow	-10.431
▁record	-10.431
▁übt	-10.431
▁entfernt	-10.431
▁jumpsuit	-10.431
▁Kuh	-10.431
▁Werkzeug	-10.431
▁inflatable	-10.431
▁Jahrmarkt	-10.431
▁sword	-10.431
▁Tarn	-10.4311
▁will	-10.4313
able	-10.4315
▁doll	-10.4315
▁heart	-10.4315
▁you	-10.4316
weise	-10.4317
▁kicks	-10.4324
▁umher	-10.4325
▁Ausrüstung	-10.4326
▁plane	-10.4333
▁beieinander	-10.4341
ful	-10.4342
▁Tuch	-10.4343
▁blocks	-10.4349
▁angezogen	-10.4351
▁feed	-10.4362
anie	-10.4368
iel	-10.4369
ungen	-10.438
▁gelegt	-10.4381
▁denim	-10.4395
▁kickt	-10.4409
▁fenced	-10.441
▁Eingang	-10.4417
let	-10.445
▁cones	-10.4453
▁lots	-10.4462
chu	-10.4464
▁tracks	-10.448
brauner	-10.4493
▁glücklich	-10.4503
▁offen	-10.4541
▁Hunden	-10.4551
tzt	-10.4552
▁bo	-10.4591
atz	-10.4622
▁shoot	-10.4627
ett	-10.4643
lä	-10.4676
▁low	-10.4688
▁Male	-10.4689
▁poles	-10.4689
▁fill	-10.4695
▁mark	-10.4708
▁discuss	-10.4708
▁direct	-10.4709
▁Kunst	-10.4709
▁Polizei	-10.471
▁Bräutigam	-10.471
▁Geschirr	-10.471
▁Teleskop	-10.471
▁barfüßige	-10.471
▁compete	-10.471
▁courtyard	-10.471
▁escalator	-10.471
▁juggling	-10.471
▁landscape	-10.471
▁married	-10.471
▁railroad	-10.471
▁referee	-10.471
▁shadow	-10.471
▁tractor	-10.471
▁unterschiedlich	-10.471
▁vollführt	-10.471
▁Brust	-10.471
▁Santa	-10.471
▁Kegel	-10.471
▁hölzerne	-10.471
▁model	-10.471
▁Street	-10.471
▁receiv	-10.471
▁üben	-10.471
▁helfen	-10.471
▁Baseballkappe	-10.471
▁geworfen	-10.4711
▁Rollstuhl	-10.4711
▁chest	-10.4711
▁City	-10.4711
▁hinaus	-10.4711
▁goalie	-10.4713
▁lane	-10.4713
▁beam	-10.4717
▁hinterher	-10.4718
▁amuse	-10.4721
▁aco	-10.4724
▁bringt	-10.4729
▁kommen	-10.4745
▁sail	-10.475
like	-10.476
▁buying	-10.4774
▁windows	-10.4786
▁sca	-10.4795
▁neue	-10.4798
▁Fahrer	-10.4814
▁nassen	-10.4821
▁Japane	-10.4831
ex	-10.4842
▁pushe	-10.4857
lauf	-10.4866
eiß	-10.4866
▁bl	-10.4878
artige	-10.4886
▁gesäumte	-10.4889
▁Spitze	-10.4892
▁laughs	-10.4904
▁Schaufenster	-10.4906
merican	-10.4914
▁bunt	-10.4915
▁str	-10.4924
lar	-10.4939
▁soldier	-10.4952
▁musician	-10.4956
▁Spielen	-10.4971
▁eats	-10.4992
▁Seve	-10.4995
stein	-10.4998
kun	-10.5007
▁riesige	-10.5032
▁protest	-10.504
▁relax	-10.5044
box	-10.5045
▁Sees	-10.5062
▁na	-10.5077
▁Gerät	-10.5088
▁Fotograf	-10.5088
▁Lo	-10.5095
▁Sitz	-10.5095
ustic	-10.5102
▁stehende	-10.5124
▁suspende	-10.5126
▁Brett	-10.5126
anzügen	-10.5127
▁Ziel	-10.5127
▁überprüf	-10.5127
stühlen	-10.5127
▁Drachen	-10.5127
▁Kapuzenpulli	-10.5127
▁Karren	-10.5127
▁Keyboard	-10.5127
▁Schiff	-10.5127
▁Schäferhund	-10.5127
▁White	-10.5127
▁benutzen	-10.5127
▁bread	-10.5127
▁carriage	-10.5127
▁casual	-10.5127
▁club	-10.5127
▁entertain	-10.5127
▁gezeigt	-10.5127
▁gleitet	-10.5127
▁happily	-10.5127
▁konzentriert	-10.5127
▁marketplace	-10.5127
▁banner	-10.5127
▁Koffer	-10.5127
▁peace	-10.5127
▁Neoprenanzug	-10.5127
▁Jungs	-10.5127
▁bewegt	-10.5127
▁Rolltreppe	-10.5127
▁Turnhalle	-10.5127
▁carpet	-10.5127
▁heiße	-10.5127
▁socks	-10.5127
▁feiern	-10.5127
▁egg	-10.5127
▁paddelt	-10.5127
▁mustache	-10.5128
▁Waldgebiet	-10.5128
▁attend	-10.5128
▁dune	-10.5128
▁garbage	-10.5128
▁adjust	-10.5129
▁Besen	-10.513
▁rollerskat	-10.5132
▁Plakat	-10.5136
▁tight	-10.5137
▁pajamas	-10.5138
▁Seiten	-10.5142
▁order	-10.5143
▁firefighter	-10.5144
licht	-10.5144
▁angelt	-10.5146
▁fertig	-10.5146
▁bucking	-10.5157
▁diver	-10.516
▁backwards	-10.5161
tür	-10.5163
▁farbige	-10.5167
▁scaffolding	-10.5168
▁geben	-10.517
▁Brot	-10.5181
▁ringen	-10.5195
▁cheering	-10.52
pri	-10.5205
▁touching	-10.5207
ord	-10.522
▁map	-10.5254
▁Theke	-10.5266
▁goods	-10.5267
▁tools	-10.5277
▁step	-10.5287
▁skirts	-10.5288
▁soldiers	-10.5305
trick	-10.5355
▁nasse	-10.537
tered	-10.5376
▁direction	-10.5386
▁bubble	-10.5388
▁Bl	-10.5406
Skateboardfahrer	-10.5418
old	-10.5434
eil	-10.5434
▁come	-10.5436
▁Ru	-10.5443
▁moves	-10.5444
▁abge	-10.5464
▁pre	-10.5518
▁ja	-10.5521
mannschaft	-10.5522
▁Handschuh	-10.5524
od	-10.5534
weight	-10.5551
▁toss	-10.5553
änner	-10.5559
halle	-10.556
kampf	-10.5561
▁Militär	-10.5561
▁McDonald	-10.5562
▁Protest	-10.5562
anlage	-10.5562
skulptur	-10.5562
▁Gegner	-10.5562
▁Gemälde	-10.5562
▁Hürde	-10.5562
▁John	-10.5562
▁Saxophon	-10.5562
▁Stapel	-10.5562
▁Tennisschläger	-10.5562
▁Trägerhemd	-10.5562
▁Vögel	-10.5562
▁athletic	-10.5562
▁bounc	-10.5562
▁caught	-10.5562
▁frisbee	-10.5562
▁gelehnt	-10.5562
▁harness	-10.5562
▁lehnen	-10.5562
▁living	-10.5562
▁obstacle	-10.5562
▁plaza	-10.5562
▁serving	-10.5562
▁underwater	-10.5562
▁wagon	-10.5562
▁involv	-10.5562
▁rugby	-10.5562
▁Flughafen	-10.5562
▁German	-10.5562
▁Weihnachtsbaum	-10.5562
▁airport	-10.5562
▁stove	-10.5562
▁Nahaufnahme	-10.5562
▁coach	-10.5562
▁barrel	-10.5562
▁snack	-10.5562
▁broom	-10.5562
▁teammate	-10.5562
▁action	-10.5562
Puppe	-10.5562
▁sheep	-10.5562
▁Mänteln	-10.5562
▁kehrt	-10.5562
▁Musikinstrument	-10.5562
▁Auftritt	-10.5562
▁Knie	-10.5563
▁Gewand	-10.5563
▁six	-10.5563
▁dining	-10.5563
▁fly	-10.5563
▁Herd	-10.5564
▁Motocross	-10.5564
▁free	-10.5564
▁Handtuch	-10.5565
seite	-10.5565
▁doctor	-10.5566
bekleidung	-10.5571
sleeved	-10.5572
▁Heu	-10.5572
▁bro	-10.5574
▁hay	-10.558
▁teacher	-10.5583
▁Angel	-10.5583
▁welding	-10.5586
▁frische	-10.5587
schau	-10.5587
▁wide	-10.5588
▁raised	-10.559
▁Stöcke	-10.5596
▁ausgestreckte	-10.56
▁hübsche	-10.561
ggy	-10.5617
▁bear	-10.5629
▁touch	-10.5631
raum	-10.564
lad	-10.5641
▁farm	-10.5644
▁Meeres	-10.5644
▁jerseys	-10.5652
▁riders	-10.5685
▁du	-10.5707
jo	-10.572
ple	-10.5721
stock	-10.573
▁motorcycles	-10.574
▁irgendeine	-10.5752
fully	-10.5761
▁bekleidete	-10.5762
ress	-10.5771
ator	-10.5788
sta	-10.5798
▁participat	-10.5842
▁orientalische	-10.5855
▁fans	-10.586
▁student	-10.5865
▁Berges	-10.5891
rock	-10.5913
▁Blätter	-10.5918
▁hitt	-10.5922
U	-10.593
▁dra	-10.5931
pool	-10.5935
▁Farbe	-10.5941
▁shown	-10.5948
▁Hocke	-10.5964
▁animals	-10.5965
▁Vi	-10.597
▁Soldat	-10.5978
▁traditionelle	-10.598
▁hood	-10.5994
fläche	-10.5999
ktion	-10.6005
▁Bowling	-10.6016
köpfige	-10.6016
▁Angelrute	-10.6016
▁Bildschirm	-10.6016
▁Fläche	-10.6016
▁Pfütze	-10.6016
▁Skulptur	-10.6016
▁Trompete	-10.6016
▁Zahl	-10.6016
▁Zement	-10.6016
▁gravel	-10.6016
▁gräbt	-10.6016
▁haircut	-10.6016
▁jockey	-10.6016
▁necklace	-10.6016
▁operating	-10.6016
▁polka	-10.6016
▁schießen	-10.6016
▁trumpet	-10.6016
▁Rollerblades	-10.6016
▁Labor	-10.6016
▁Stirn	-10.6016
▁Lehrer	-10.6016
▁Wohnzimmer	-10.6016
▁Schutzbrille	-10.6016
▁sink	-10.6016
▁Gelb	-10.6016
▁Weihnachtsmann	-10.6016
▁native	-10.6017
▁mom	-10.6017
▁storefront	-10.6017
▁steinige	-10.6017
▁jagen	-10.6017
▁Schwert	-10.6017
▁drummer	-10.6018
▁Gang	-10.602
▁Wandbild	-10.602
▁Leder	-10.602
▁Fans	-10.6021
▁Pier	-10.6024
▁Bauch	-10.6025
▁Treppen	-10.6025
▁trainiert	-10.6026
▁sechs	-10.6026
▁hall	-10.6027
gebaut	-10.6027
ummer	-10.6028
▁Werbung	-10.6035
▁hooded	-10.6036
▁Handstand	-10.6036
▁khakifarbene	-10.6039
▁Studenten	-10.6043
▁Ziegel	-10.6044
▁Dinge	-10.6045
▁mudd	-10.6046
▁kalten	-10.6055
▁folgt	-10.6055
▁zer	-10.606
▁jemanden	-10.6067
▁color	-10.6072
ou	-10.6077
▁lassen	-10.6083
▁spinn	-10.6092
▁Fischer	-10.61
setzen	-10.6106
spielzeug	-10.6108
elle	-10.6133
▁barbecue	-10.6138
▁paints	-10.6159
ierten	-10.6189
▁complete	-10.6191
▁bare	-10.6199
äck	-10.6226
arge	-10.6226
▁bin	-10.6228
ette	-10.623
glas	-10.6278
▁grilling	-10.6312
rest	-10.6316
▁flipp	-10.6317
ump	-10.6317
▁individual	-10.6318
▁cone	-10.6323
▁halb	-10.6327
▁sw	-10.6329
▁tackle	-10.6334
▁cover	-10.6337
▁raise	-10.6352
vil	-10.6367
▁volle	-10.6371
▁pl	-10.639
▁engage	-10.6396
gelegt	-10.6405
tritt	-10.6406
down	-10.6406
▁cheer	-10.641
▁runners	-10.6413
▁Dr	-10.6436
▁Zu	-10.6448
bus	-10.6456
llen	-10.6458
▁Sicherheits	-10.6471
▁No	-10.6478
▁pit	-10.6479
▁approach	-10.6481
hoe	-10.6486
▁leav	-10.6489
sammelt	-10.649
▁reflect	-10.6491
hilfe	-10.6492
▁Kampf	-10.6492
▁Kapuze	-10.6492
▁Profi	-10.6492
förmige	-10.6492
▁Behälter	-10.6492
▁Brown	-10.6492
▁Bushaltestelle	-10.6492
▁Daumen	-10.6492
▁Eltern	-10.6492
▁Figur	-10.6492
▁Gassi	-10.6492
▁Hütte	-10.6492
▁Klavier	-10.6492
▁Kletterer	-10.6492
▁Orchester	-10.6492
▁Ozean	-10.6492
▁Pfosten	-10.6492
▁Pärchen	-10.6492
▁Zuschauermenge	-10.6492
▁bathroom	-10.6492
▁control	-10.6492
▁geblümte	-10.6492
▁headscarf	-10.6492
▁jungle	-10.6492
▁kahlköpfiger	-10.6492
▁kochen	-10.6492
▁motorbike	-10.6492
▁orchestra	-10.6492
▁ribbon	-10.6492
▁routine	-10.6492
▁sandwich	-10.6492
▁spread	-10.6492
▁thumb	-10.6492
▁daneben	-10.6492
▁garage	-10.6492
▁schwere	-10.6492
▁Säule	-10.6492
▁camel	-10.6492
▁saw	-10.6492
▁interact	-10.6492
▁candy	-10.6492
rubber	-10.6492
▁text	-10.6492
▁Kamel	-10.6493
▁checkered	-10.6493
▁weint	-10.6493
▁things	-10.6493
▁hören	-10.6493
▁half	-10.6493
▁hallway	-10.6493
▁studio	-10.6493
▁streichelt	-10.6493
▁DJ	-10.6493
▁money	-10.6493
▁youth	-10.6493
▁heels	-10.6494
▁presentation	-10.6494
salon	-10.6494
▁Feier	-10.6494
▁Fest	-10.6494
▁Videospiel	-10.6494
▁kite	-10.6495
▁baut	-10.6495
▁Kette	-10.6495
▁dicht	-10.6496
▁mobile	-10.6497
▁Stadtstraße	-10.6498
▁nähert	-10.6501
▁redhead	-10.6503
Backsteingebäude	-10.6504
strecke	-10.6504
▁bringen	-10.6505
▁sack	-10.6505
▁runden	-10.6507
wasser	-10.6508
▁Herz	-10.651
selbe	-10.6514
buch	-10.6515
▁Menschengruppe	-10.6516
lit	-10.6519
▁guitarist	-10.6519
▁backpacks	-10.6519
▁Kran	-10.6521
▁Topf	-10.6527
▁Trainings	-10.6531
▁pedestrians	-10.6532
▁beigefarbene	-10.6533
▁steilen	-10.6533
▁sha	-10.6539
of	-10.6545
▁z	-10.6548
▁gehende	-10.6554
blaue	-10.6554
▁Stier	-10.6554
work	-10.6563
▁rast	-10.6569
▁Motor	-10.6569
▁but	-10.6577
▁Füßen	-10.658
▁lächelndes	-10.6592
hosen	-10.6609
kel	-10.6613
ood	-10.6613
sam	-10.6616
ike	-10.6618
▁hinein	-10.6628
pie	-10.6639
▁stor	-10.6642
▁benches	-10.6664
▁rod	-10.6672
▁anzu	-10.6673
▁Kunststücke	-10.6681
▁Car	-10.6694
decke	-10.6696
▁sing	-10.6709
▁stehenden	-10.671
▁Ballons	-10.6714
▁bestehende	-10.673
▁point	-10.6735
fährt	-10.6739
eep	-10.675
ked	-10.6768
stellt	-10.6774
▁cyclists	-10.6777
▁Schutz	-10.6809
▁craft	-10.6819
▁Ba	-10.6825
verkäufer	-10.6832
ahl	-10.6843
▁thrown	-10.685
▁Rede	-10.685
halt	-10.6863
deck	-10.6866
▁photographs	-10.6885
▁vorüber	-10.6891
▁creat	-10.6899
dress	-10.6918
robe	-10.6939
▁Tourist	-10.6954
▁Bike	-10.6957
▁dive	-10.6962
▁film	-10.6971
▁handle	-10.6976
otocross	-10.699
▁multi	-10.6991
▁Einkaufs	-10.6991
▁Taucher	-10.6991
▁Gummi	-10.6992
▁Outdoor	-10.6992
irthday	-10.6992
▁Bahnsteig	-10.6992
▁Dreadlocks	-10.6992
▁Hammer	-10.6992
▁Karton	-10.6992
▁Kunststoff	-10.6992
▁Motorroller	-10.6992
▁Rennauto	-10.6992
▁Schnurrbart	-10.6992
▁Skatepark	-10.6992
▁Taxi	-10.6992
▁elephant	-10.6992
▁entrance	-10.6992
▁focus	-10.6992
▁patio	-10.6992
▁pattern	-10.6992
▁racetrack	-10.6992
▁speech	-10.6992
▁mehrfarbige	-10.6992
▁ceiling	-10.6992
▁scheinen	-10.6992
▁Robe	-10.6992
▁China	-10.6992
▁Fliege	-10.6992
▁Socken	-10.6992
▁excited	-10.6992
▁Einkaufszentrum	-10.6992
▁crash	-10.6993
▁machinery	-10.6993
▁joggt	-10.6993
▁Picknicktisch	-10.6993
▁muzzle	-10.6993
▁Steinmauer	-10.6993
▁admir	-10.6993
▁Baseballmütze	-10.6994
▁leaf	-10.6994
▁Inline	-10.6995
▁puck	-10.6996
▁summer	-10.6996
▁hid	-10.6997
cuba	-10.6998
▁policeman	-10.6998
▁mall	-10.7
▁auszu	-10.7004
stapel	-10.7007
▁tag	-10.7009
▁batter	-10.7014
▁Speisen	-10.7015
▁container	-10.7019
▁sprinkler	-10.7019
▁dunkelblaue	-10.7019
▁Biker	-10.703
▁zeichnet	-10.704
▁spritzt	-10.704
rench	-10.7041
▁dicke	-10.7041
▁pett	-10.7052
▁vehicles	-10.7053
▁Kisten	-10.706
▁Motorrädern	-10.7065
mittel	-10.7068
▁su	-10.7083
▁Cafe	-10.7084
▁verkleidete	-10.7105
▁tool	-10.7106
▁snowboarding	-10.7107
▁passengers	-10.7116
▁Kopfhörern	-10.715
ped	-10.7152
▁gaze	-10.716
▁examine	-10.7208
▁rowing	-10.7221
▁pen	-10.7237
▁read	-10.7249
▁Kunstwerk	-10.7263
rand	-10.7269
▁tip	-10.7273
▁rests	-10.7285
ried	-10.7314
▁Red	-10.734
▁smoke	-10.7342
▁glove	-10.7346
▁good	-10.7349
▁abzu	-10.7375
ffel	-10.7391
▁ropes	-10.7391
▁angel	-10.7403
▁ears	-10.7409
▁Füße	-10.7422
V	-10.7423
▁Blume	-10.7424
▁Mi	-10.7431
Reifen	-10.7431
style	-10.7432
show	-10.7432
Schild	-10.7432
Gitarre	-10.7433
▁Sonnenbrillen	-10.7451
▁plac	-10.7454
▁Wei	-10.7456
▁sets	-10.7458
▁buy	-10.746
▁va	-10.7462
▁Gitarrist	-10.7479
▁Schule	-10.7488
▁Baseballspiel	-10.7501
▁mop	-10.7505
kü	-10.7515
▁Grün	-10.7518
schließ	-10.7519
▁Anlegestelle	-10.7519
▁Crowd	-10.7519
▁Freiluft	-10.7519
▁Geldbörse	-10.7519
▁Körper	-10.7519
▁Nickerchen	-10.7519
▁Nähmaschine	-10.7519
▁Sanddüne	-10.7519
▁Wasserski	-10.7519
▁african	-10.7519
▁aqua	-10.7519
▁boardwalk	-10.7519
▁donkey	-10.7519
▁dünne	-10.7519
▁electronic	-10.7519
▁feather	-10.7519
▁hospital	-10.7519
▁intersection	-10.7519
▁ländliche	-10.7519
▁museum	-10.7519
▁product	-10.7519
▁Passagier	-10.7519
▁herself	-10.7519
▁rudert	-10.7519
▁ATV	-10.7519
▁Dorf	-10.7519
▁schwach	-10.7519
▁ornate	-10.7519
▁Hinterhof	-10.7519
▁barrier	-10.7519
▁beschäftigt	-10.7519
▁rough	-10.7519
▁Straßenhändler	-10.7519
▁Bahnhof	-10.7519
▁Windhund	-10.7519
▁drill	-10.7519
Skate	-10.7519
▁Bowlingbahn	-10.7519
▁Lampe	-10.752
▁stopped	-10.752
▁Rennwagen	-10.752
▁possibly	-10.752
▁seichte	-10.752
▁horseback	-10.752
▁keep	-10.752
▁kahl	-10.752
▁schwarzhaarige	-10.7521
▁Kreuzung	-10.7521
▁Stift	-10.7521
▁discussion	-10.7521
▁Traktor	-10.7521
▁Start	-10.7521
assen	-10.7523
▁hillside	-10.7523
▁dire	-10.7524
▁vorbeifährt	-10.7524
▁Kies	-10.7524
▁headband	-10.7526
▁bushes	-10.7527
ches	-10.7528
▁Bekleidung	-10.7528
▁featur	-10.7529
▁surrounding	-10.7534
▁Wettbewerb	-10.7536
▁song	-10.7544
▁langhaariger	-10.7549
▁Esel	-10.7549
▁wrestler	-10.7553
▁sil	-10.756
▁lin	-10.756
▁horn	-10.7575
▁lockige	-10.7577
▁Zeichen	-10.7579
▁cab	-10.7582
▁silbernen	-10.759
▁Schlagzeuger	-10.7598
▁fruits	-10.7602
▁apple	-10.7637
▁dot	-10.764
▁tin	-10.7657
▁enter	-10.7658
▁Typen	-10.7663
▁Luftballons	-10.7669
ence	-10.7689
▁splashe	-10.7692
▁participate	-10.7725
gg	-10.7727
▁Getränken	-10.7781
▁wor	-10.7783
▁Graffitis	-10.7785
▁Tee	-10.7841
▁tea	-10.7847
arbeiter	-10.7857
▁Ei	-10.7862
wal	-10.7868
▁geöffnete	-10.7901
itte	-10.7902
ky	-10.7909
▁cleans	-10.7921
utsch	-10.793
▁dunkle	-10.7943
▁Softball	-10.7975
▁nah	-10.7976
unte	-10.7979
treten	-10.7991
▁mus	-10.7996
inde	-10.8011
▁Har	-10.8018
▁glä	-10.8033
▁streich	-10.8038
▁bikers	-10.8047
▁pet	-10.805
▁Erd	-10.805
▁baskets	-10.8053
flasche	-10.8063
▁Waffe	-10.807
▁Rugby	-10.8073
▁Außen	-10.8074
linie	-10.8074
▁Hinter	-10.8074
▁interview	-10.8074
Fußgängerüberweg	-10.8074
▁Balken	-10.8074
▁Bänken	-10.8074
▁Club	-10.8074
▁Flüssigkeit	-10.8074
▁Gürtel	-10.8074
▁Klettergerüst	-10.8074
▁Olympic	-10.8074
▁Rädern	-10.8074
▁Sonnenschirm	-10.8074
▁Verkäufer	-10.8074
▁bearbeitet	-10.8074
▁berühren	-10.8074
▁celebrating	-10.8074
▁cobble	-10.8074
▁eingezäunte	-10.8074
▁exhibit	-10.8074
▁fencing	-10.8074
▁flauschige	-10.8074
▁great	-10.8074
▁können	-10.8074
▁maroon	-10.8074
▁marschiert	-10.8074
▁neighborhood	-10.8074
▁patient	-10.8074
▁selbst	-10.8074
▁silhouette	-10.8074
▁taxi	-10.8074
▁verheiratete	-10.8074
▁village	-10.8074
▁trockene	-10.8074
▁wife	-10.8074
▁Mittag	-10.8074
▁Bowlingkugel	-10.8074
▁moment	-10.8074
▁puppy	-10.8074
bewegung	-10.8074
▁Schwimmweste	-10.8075
▁Strohhut	-10.8075
▁Teig	-10.8075
▁East	-10.8075
▁Einkaufstasche	-10.8075
▁Dreck	-10.8075
▁firetruck	-10.8075
▁Moped	-10.8075
▁tun	-10.8075
▁USA	-10.8075
▁squatting	-10.8075
Cola	-10.8075
▁Halle	-10.8076
▁Rauch	-10.8076
▁nav	-10.8076
▁outstretched	-10.8076
▁Wange	-10.8076
▁blondhaarige	-10.8077
▁Feder	-10.8077
▁still	-10.8078
▁Seife	-10.8078
▁Chor	-10.8079
▁knit	-10.808
born	-10.808
▁Puck	-10.8081
▁gehalten	-10.8083
▁dishes	-10.8085
car	-10.8086
▁Arena	-10.8087
▁US	-10.8088
▁handstand	-10.8091
▁runter	-10.8094
▁amüsieren	-10.8095
▁clay	-10.8097
▁Rucksäcken	-10.8099
▁Lied	-10.8104
▁beladen	-10.8104
▁Wänden	-10.8105
▁statt	-10.8109
▁los	-10.8116
▁anhat	-10.8126
▁Fotografen	-10.8126
▁vorne	-10.813
▁tätowierte	-10.8145
pfen	-10.8147
▁leicht	-10.8157
▁farmer	-10.8167
▁herab	-10.8169
▁Regenschirmen	-10.8189
▁fur	-10.8191
recht	-10.8192
lose	-10.8201
▁hugs	-10.8222
findet	-10.8226
cent	-10.824
dach	-10.8286
▁passende	-10.8297
pped	-10.8309
▁ahead	-10.8334
rück	-10.8337
io	-10.8345
▁medic	-10.8362
▁glückliche	-10.8371
▁indoors	-10.8378
ähnliche	-10.8391
▁seats	-10.84
rank	-10.84
▁Ton	-10.8411
▁Feuerwehrm	-10.8425
try	-10.8427
▁eng	-10.8428
▁slides	-10.8432
ious	-10.8438
▁schlafende	-10.8474
▁finger	-10.849
▁seltsame	-10.8492
▁item	-10.8515
richten	-10.8539
▁prob	-10.8551
▁ca	-10.8561
über	-10.8568
spielen	-10.857
uniform	-10.8576
steigen	-10.8581
wood	-10.8582
▁Afroamerikaner	-10.8582
farbene	-10.8588
▁tee	-10.8588
▁wrestle	-10.8624
▁wate	-10.8635
▁Volleyballspiel	-10.8635
▁dish	-10.8654
figur	-10.8661
▁chalk	-10.8662
sprung	-10.8662
▁Hotel	-10.8662
bildschirm	-10.8662
blätter	-10.8662
ecurity	-10.8662
kreuz	-10.8662
▁Bluejeans	-10.8662
▁Gespräch	-10.8662
▁Gewänder	-10.8662
▁Heißluftballon	-10.8662
▁Herbst	-10.8662
▁Plattform	-10.8662
▁Sandstrand	-10.8662
▁Schlittschuh	-10.8662
▁Schubkarre	-10.8662
▁Show	-10.8662
▁Silhouette	-10.8662
▁Square	-10.8662
▁Surfboard	-10.8662
▁Tafel	-10.8662
▁bagpipe	-10.8662
▁begutachtet	-10.8662
▁choir	-10.8662
▁cricket	-10.8662
▁dreadlocks	-10.8662
▁füllt	-10.8662
▁gebeugt	-10.8662
▁gegenseitig	-10.8662
▁glatzköpfige	-10.8662
▁hotdog	-10.8662
▁nächste	-10.8662
▁richtet	-10.8662
▁schwenkt	-10.8662
▁suitcase	-10.8662
▁treffen	-10.8662
▁Konferenz	-10.8662
▁crouching	-10.8662
▁rink	-10.8662
▁spoon	-10.8662
▁steckt	-10.8662
▁vacuum	-10.8662
▁own	-10.8662
▁Becken	-10.8662
▁brennende	-10.8663
▁upward	-10.8663
▁Schachtel	-10.8663
▁ballerina	-10.8663
▁dead	-10.8663
▁first	-10.8663
▁patch	-10.8663
▁sofa	-10.8663
▁regne	-10.8663
▁visit	-10.8663
▁scenery	-10.8663
▁odd	-10.8663
▁Platte	-10.8663
▁carving	-10.8663
▁punch	-10.8663
▁Abendessen	-10.8663
▁Schwimmbad	-10.8663
drückt	-10.8663
▁Schlafanzug	-10.8663
flops	-10.8663
▁soda	-10.8663
▁calf	-10.8663
▁sucht	-10.8663
▁Hoch	-10.8663
▁knien	-10.8663
▁geschminkte	-10.8664
▁iron	-10.8664
läufer	-10.8665
▁grand	-10.8665
▁cheerleaders	-10.8665
▁College	-10.8665
▁lamp	-10.8666
▁hart	-10.8666
▁Noten	-10.8666
▁gift	-10.8666
▁Fußballfeld	-10.8668
zeit	-10.8668
▁Pitcher	-10.8671
boot	-10.8672
▁size	-10.8672
▁stripes	-10.8672
▁Ente	-10.8672
▁kaut	-10.8675
▁Texas	-10.8681
▁Tattoo	-10.8687
▁monitor	-10.8687
▁Kerzen	-10.8689
▁newly	-10.8691
▁stretching	-10.8693
▁pu	-10.8698
▁circu	-10.8702
▁crew	-10.8703
▁buckets	-10.8705
▁flachen	-10.8725
▁stares	-10.8727
▁amid	-10.8728
▁Karten	-10.8731
ruhen	-10.8739
▁Outfits	-10.8747
▁bottles	-10.8758
▁thin	-10.8768
▁coloring	-10.877
▁fo	-10.879
leicht	-10.8822
▁skates	-10.8842
▁gas	-10.8854
▁smokes	-10.8864
▁crafts	-10.8874
▁tags	-10.8877
▁Deck	-10.8891
▁weiter	-10.8902
lassen	-10.8902
▁Turner	-10.8905
▁Golf	-10.892
farbenen	-10.8922
waschen	-10.8948
gelb	-10.8976
well	-10.8976
og	-10.8984
▁medi	-10.8995
▁Kleider	-10.9
spritzen	-10.9008
farbe	-10.9016
▁bite	-10.9033
▁boxing	-10.9036
▁Turnerin	-10.9059
▁motor	-10.909
▁Wette	-10.9098
▁Luftballon	-10.9112
▁member	-10.9113
▁vegetable	-10.9114
▁Cheerleaders	-10.9115
zelt	-10.9144
▁spring	-10.9147
act	-10.9166
▁wrap	-10.9167
braunen	-10.9189
▁Grimasse	-10.919
hält	-10.9191
▁Fahne	-10.9192
block	-10.92
Kostüm	-10.92
Oberteil	-10.9201
Hemd	-10.9201
▁sweep	-10.9205
▁bik	-10.9205
öcken	-10.9212
▁angezogene	-10.9221
statue	-10.9237
stone	-10.9258
hör	-10.9259
▁Box	-10.9259
▁tattoos	-10.9265
▁corn	-10.9266
▁Sängerin	-10.9273
▁ga	-10.9274
▁Wohn	-10.9275
▁branch	-10.9276
rying	-10.928
▁link	-10.928
landschaft	-10.9285
odium	-10.9286
schminkt	-10.9286
▁Hafen	-10.9287
fenster	-10.9287
▁Middle	-10.9287
▁Brandung	-10.9287
▁Elmo	-10.9287
▁Friseur	-10.9287
▁Hilfe	-10.9287
▁Körbe	-10.9287
▁LKW	-10.9287
▁Löffel	-10.9287
▁Natur	-10.9287
▁Plastiktüte	-10.9287
▁altmodische	-10.9287
▁boulder	-10.9287
▁breite	-10.9287
▁cheek	-10.9287
▁chicken	-10.9287
▁collect	-10.9287
▁column	-10.9287
▁conference	-10.9287
▁entspannen	-10.9287
▁ethnic	-10.9287
▁furniture	-10.9287
▁greyhound	-10.9287
▁gymnasium	-10.9287
▁kopfüber	-10.9287
▁library	-10.9287
▁liquid	-10.9287
▁marschieren	-10.9287
▁material	-10.9287
▁parachute	-10.9287
▁partially	-10.9287
▁silberfarbene	-10.9287
▁similar	-10.9287
▁stairway	-10.9287
▁unicycle	-10.9287
▁Bewegung	-10.9287
▁Lächeln	-10.9287
▁intently	-10.9287
▁schweißt	-10.9287
▁japanische	-10.9287
▁untersuchen	-10.9287
▁Kalb	-10.9288
▁tray	-10.9288
▁beißt	-10.9288
schloss	-10.9288
▁Umhang	-10.9288
▁entgegen	-10.9288
wirbelt	-10.9288
schieben	-10.9288
▁Waschsalon	-10.9288
▁Linie	-10.9288
▁Wettrennen	-10.9288
▁jede	-10.9288
▁dimly	-10.9288
▁Film	-10.9288
▁nighttime	-10.9288
▁Theater	-10.9288
▁Feuerwehrmann	-10.9288
▁crane	-10.9288
▁comfort	-10.9289
▁Röcken	-10.9289
▁Frisbeescheibe	-10.9289
▁Blumenmuster	-10.9289
▁derby	-10.929
▁fegt	-10.929
▁Must	-10.929
▁tower	-10.929
▁space	-10.929
▁love	-10.929
▁castle	-10.9291
▁tend	-10.9291
▁Sportwagen	-10.9292
▁planscht	-10.9292
▁dazu	-10.9293
▁Grasfläche	-10.9294
▁jet	-10.9294
tlich	-10.9294
▁calm	-10.9295
▁Jeansjacke	-10.9295
▁bass	-10.9296
▁barber	-10.9299
▁Wasserflasche	-10.93
▁Messer	-10.9301
▁trainieren	-10.9301
ox	-10.9301
▁füttert	-10.9302
▁Fahrt	-10.9302
▁spä	-10.9302
▁win	-10.9304
▁noch	-10.9305
▁range	-10.9305
▁Spielkleidung	-10.9308
▁parent	-10.9308
▁Kugel	-10.9308
▁test	-10.9309
muster	-10.9311
▁moped	-10.9312
▁Mitglieder	-10.9316
▁bewölkten	-10.9316
die	-10.9317
▁para	-10.9323
▁Palmen	-10.9329
▁Tauben	-10.9335
▁cast	-10.9337
▁tied	-10.9348
▁pigeons	-10.9351
tanz	-10.9357
▁following	-10.9362
▁rollt	-10.9366
▁pret	-10.9384
▁aufgestellt	-10.9385
Eishockeyspieler	-10.9388
▁candles	-10.9397
▁farbenfroher	-10.9398
▁cop	-10.9403
▁beat	-10.9406
▁rug	-10.942
▁listens	-10.9422
▁soll	-10.9426
▁style	-10.9433
blau	-10.9434
▁rais	-10.9438
▁lounge	-10.9442
ity	-10.9447
▁Herren	-10.9455
▁trailer	-10.9455
round	-10.9469
kart	-10.9477
erry	-10.948
▁wandern	-10.9488
▁tackl	-10.9502
▁balding	-10.9539
▁Geschäften	-10.9543
▁verlassen	-10.9546
eben	-10.9551
▁fliegende	-10.9585
weste	-10.9588
gang	-10.9597
▁fröhliche	-10.9611
ature	-10.962
bedeckte	-10.9652
gar	-10.9654
lift	-10.9661
bel	-10.9683
▁shake	-10.9704
▁fliegen	-10.9736
▁typ	-10.9741
▁Jack	-10.9761
▁got	-10.9765
▁loung	-10.9803
▁Eishockey	-10.9849
sleeve	-10.9851
ellow	-10.9851
▁hug	-10.9854
▁parkt	-10.9857
▁Motorräder	-10.9857
▁Stufe	-10.9859
stehende	-10.9859
läuft	-10.9868
shorts	-10.9868
▁march	-10.9872
more	-10.9906
▁Ziege	-10.991
▁langhaarige	-10.9916
▁Fels	-10.9917
iegen	-10.9917
▁contain	-10.9919
▁share	-10.993
▁Schafe	-10.9943
hügel	-10.9951
neath	-10.9951
▁cheerlead	-10.9952
gebiet	-10.9952
wendet	-10.9953
▁Weihnachts	-10.9954
▁Modell	-10.9954
wärts	-10.9954
▁Badewanne	-10.9954
▁Elefanten	-10.9954
▁Floß	-10.9954
▁Flöte	-10.9954
▁Hawaii	-10.9954
▁Händler	-10.9954
▁Klassenraum	-10.9954
▁Kreide	-10.9954
▁Kricket	-10.9954
▁Multip	-10.9954
▁Mülltonne	-10.9954
▁Produkte	-10.9954
▁Säugling	-10.9954
▁Transport	-10.9954
▁Violine	-10.9954
▁Walmart	-10.9954
▁advertising	-10.9954
▁ausgebreitet	-10.9954
▁billboard	-10.9954
▁bückt	-10.9954
▁celebrate	-10.9954
▁converse	-10.9954
▁dekoriert	-10.9954
▁diskutieren	-10.9954
▁jewelry	-10.9954
▁jubeln	-10.9954
▁nieder	-10.9954
▁näht	-10.9954
▁observing	-10.9954
▁process	-10.9954
▁rainbow	-10.9954
▁scheinbar	-10.9954
▁stomach	-10.9954
▁television	-10.9954
▁treibt	-10.9954
▁verlässt	-10.9954
▁weather	-10.9954
▁übergewichtige	-10.9954
▁Home	-10.9954
▁Notiz	-10.9954
▁juggle	-10.9954
▁operate	-10.9954
▁Köche	-10.9954
▁wischt	-10.9954
▁peek	-10.9954
▁verdeckt	-10.9954
wurf	-10.9954
▁Bandana	-10.9954
▁Ballerina	-10.9954
▁Flur	-10.9954
▁forward	-10.9954
▁bundle	-10.9954
▁return	-10.9954
stimmt	-10.9954
▁treat	-10.9954
▁reinigen	-10.9954
▁Piste	-10.9954
▁Sessel	-10.9954
▁Mittagessen	-10.9954
▁Ziegelmauer	-10.9954
▁learn	-10.9954
▁Halskette	-10.9954
▁chew	-10.9954
▁Straßenmusik	-10.9955
▁klare	-10.9955
▁Fahrgeschäft	-10.9955
▁Reifenschaukel	-10.9955
kurs	-10.9955
▁joggen	-10.9955
▁Tribüne	-10.9955
▁starren	-10.9955
▁Wind	-10.9955
▁festhält	-10.9955
▁Bogen	-10.9957
▁Torhüter	-10.9957
▁Maulkorb	-10.9957
▁Nah	-10.9958
▁Feuerwehrleute	-10.9958
▁Moment	-10.9958
▁Polo	-10.9958
▁Time	-10.9958
▁spot	-10.9958
riff	-10.9959
▁lick	-10.9959
▁exit	-10.9959
▁skill	-10.9959
▁befahrene	-10.9961
▁bekommen	-10.9961
▁bewundert	-10.9961
▁bespritzt	-10.9961
hile	-10.9961
▁fireman	-10.9962
▁theater	-10.9962
▁Rohr	-10.9963
▁Waldweg	-10.9963
zahl	-10.9963
▁Snowboardfahre	-10.9964
▁ausgestellt	-10.9966
Derby	-10.9966
▁Sportkleidung	-10.9967
▁called	-10.997
handschuh	-10.9972
▁official	-10.9974
▁pop	-10.9976
▁prop	-10.9979
▁Poster	-10.9982
träger	-10.9984
▁Büschen	-10.9985
▁goat	-10.9986
▁flute	-10.9988
▁Fire	-10.9991
▁Fecht	-10.9993
▁cape	-10.9994
▁press	-11.0001
▁engen	-11.0002
▁tape	-11.0005
llt	-11.0006
▁Beine	-11.001
▁torch	-11.0017
▁ober	-11.0018
▁crosses	-11.0021
▁Laufen	-11.0025
▁Ohren	-11.0026
▁Welpen	-11.0032
rlich	-11.0038
▁strip	-11.0047
▁teach	-11.0047
lten	-11.0048
▁Schildern	-11.006
▁pine	-11.0083
▁Tanzen	-11.0094
▁Baumes	-11.0099
▁far	-11.0117
▁follows	-11.0123
gestellt	-11.0137
▁lang	-11.0152
▁Schleife	-11.0167
▁Schirmen	-11.0169
▁Flaschen	-11.019
arded	-11.0201
▁directions	-11.0235
och	-11.0264
▁ähnlich	-11.0272
▁catcher	-11.0272
▁shades	-11.0272
▁aufgeregt	-11.0275
bends	-11.0282
▁wir	-11.0306
hat	-11.033
▁bekleidet	-11.0343
▁Stangen	-11.0392
▁follow	-11.0406
bad	-11.0466
▁passenger	-11.0493
▁trunk	-11.0495
▁say	-11.0495
blade	-11.0497
▁Tennisspielerin	-11.0516
schwarz	-11.0522
▁qu	-11.0522
▁silberne	-11.0572
▁Kiste	-11.0572
▁verschneite	-11.0573
▁Süßigkeiten	-11.0574
J	-11.0579
schaut	-11.0595
▁verschieden	-11.0614
▁hike	-11.0632
▁cage	-11.0645
▁tug	-11.0649
stürzt	-11.0655
▁whil	-11.066
occer	-11.0665
hüte	-11.0665
udio	-11.0666
▁jog	-11.0667
▁Krankenhaus	-11.0668
▁Freu	-11.0668
▁Aussicht	-11.0668
▁Pfadfinder	-11.0668
▁aufmerksam	-11.0668
▁chopp	-11.0668
▁consist	-11.0668
geländer	-11.0668
kräfte	-11.0668
▁Bibliothek	-11.0668
▁Breakdance	-11.0668
▁Caucasian	-11.0668
▁Fernglas	-11.0668
▁Hotdog	-11.0668
▁Jenga	-11.0668
▁Museum	-11.0668
▁Pfanne	-11.0668
▁Pizza	-11.0668
▁Rettungswesten	-11.0668
▁Schmutz	-11.0668
▁Streifen	-11.0668
▁Tablett	-11.0668
▁Trainer	-11.0668
▁Zöpfen	-11.0668
▁binoculars	-11.0668
▁character	-11.0668
▁downtown	-11.0668
▁drinnen	-11.0668
▁employee	-11.0668
▁exercise	-11.0668
▁gewickelt	-11.0668
▁gleichzeitig	-11.0668
▁pizza	-11.0668
▁ponytail	-11.0668
▁pottery	-11.0668
▁remov	-11.0668
▁schlammige	-11.0668
▁scoop	-11.0668
▁slightly	-11.0668
▁snowsuit	-11.0668
▁terrain	-11.0668
▁tricycle	-11.0668
▁weaving	-11.0668
▁wheelbarrow	-11.0668
▁würde	-11.0668
▁örtliche	-11.0668
scarves	-11.0668
▁Halloween	-11.0668
▁Coca	-11.0668
▁Stehen	-11.0668
▁Trink	-11.0668
▁airborne	-11.0668
▁fisherman	-11.0668
▁target	-11.0668
science	-11.0668
▁webt	-11.0668
▁kilt	-11.0668
▁Innenstadt	-11.0668
ößt	-11.0668
▁Lager	-11.0668
▁Schmuck	-11.0668
▁east	-11.0668
▁job	-11.0668
▁write	-11.0669
▁Segelboot	-11.0669
▁brows	-11.0669
▁disc	-11.0669
▁colli	-11.0669
▁Schach	-11.0669
▁Badezimmer	-11.0669
foto	-11.0669
▁schreiben	-11.0669
brechen	-11.0669
▁greifen	-11.0669
▁steel	-11.0669
▁Punkt	-11.0669
▁hindurch	-11.0669
▁Locken	-11.0669
▁Schlauchboot	-11.0669
▁beginnt	-11.0669
▁fetch	-11.0669
▁dough	-11.0669
▁Stirnband	-11.0669
▁Aufführung	-11.0669
wohl	-11.0669
▁gown	-11.0669
▁bewegen	-11.0669
▁nature	-11.0669
▁Blue	-11.0669
▁Blase	-11.067
▁Asiatinnen	-11.067
▁aisle	-11.067
stange	-11.067
▁engine	-11.067
▁formation	-11.067
▁formelle	-11.067
▁Akustikgitarre	-11.0671
▁nail	-11.0671
▁cree	-11.0672
▁spielerisch	-11.0673
▁Food	-11.0673
▁feiert	-11.0673
▁Marktplatz	-11.0673
▁poor	-11.0674
▁closeup	-11.0675
netz	-11.0677
▁landet	-11.0677
▁trip	-11.0678
▁vorbeigeht	-11.0678
▁Asiatische	-11.0678
kette	-11.068
▁State	-11.068
▁uniformierte	-11.068
küche	-11.0681
verkehr	-11.0683
▁Rollschuh	-11.0683
▁entlanggeht	-11.0686
flug	-11.0687
▁Radrennen	-11.0688
▁Fang	-11.0692
▁miss	-11.0697
▁semi	-11.0697
ily	-11.0701
▁Häusern	-11.0716
▁Ringer	-11.0717
▁bush	-11.073
▁wig	-11.073
▁Hocker	-11.073
▁Scheibe	-11.0732
▁photographed	-11.0737
üch	-11.0746
▁Dose	-11.0746
▁leger	-11.0748
▁gek	-11.0752
▁Köpfen	-11.0752
▁rag	-11.0761
▁It	-11.0764
▁ruhigen	-11.0766
gging	-11.0773
▁Wach	-11.0781
▁Grimassen	-11.0782
▁Eier	-11.0792
▁teen	-11.0799
▁nass	-11.0799
▁sowi	-11.0799
addle	-11.0805
▁create	-11.0808
▁protesting	-11.0817
▁tourists	-11.0822
▁Students	-11.0823
▁Blättern	-11.0826
▁arch	-11.0832
▁motori	-11.0901
kreis	-11.0907
▁zubereitet	-11.0937
▁gelbbraune	-11.0939
pfer	-11.0948
▁drag	-11.0949
rote	-11.0968
▁wei	-11.0969
▁beleuchtet	-11.0998
essen	-11.1003
▁hut	-11.1011
▁tur	-11.1048
weil	-11.105
heit	-11.1066
▁funn	-11.1133
ltere	-11.1134
cle	-11.1157
ürz	-11.1165
▁probier	-11.1177
▁Japan	-11.1205
▁liegende	-11.1206
braune	-11.1216
cular	-11.1221
▁aussehen	-11.1232
▁wh	-11.1256
▁customer	-11.1263
ligen	-11.127
pfad	-11.1306
▁lie	-11.1319
▁Karte	-11.1337
vo	-11.1338
▁Stühle	-11.1342
▁grin	-11.1347
▁Auge	-11.1348
Station	-11.1348
▁Turn	-11.1348
Zeichen	-11.1349
oth	-11.135
▁Freundin	-11.1352
grill	-11.1353
fest	-11.1355
ziehen	-11.1365
▁Dudelsack	-11.1372
▁ausgestreckt	-11.1375
eilen	-11.1381
q	-11.1382
▁styl	-11.1389
▁fu	-11.1399
▁tropi	-11.14
grauen	-11.1403
▁Szene	-11.1427
rutsche	-11.1428
▁Top	-11.1429
mobil	-11.1431
schutz	-11.1433
▁dunk	-11.1433
gepflasterte	-11.1437
brille	-11.1437
▁Flug	-11.1437
brett	-11.1437
▁Afrika	-11.1437
zeichen	-11.1438
▁geschmückt	-11.1438
Gesichtsbemalung	-11.1438
genommen	-11.1438
▁Achterbahn	-11.1438
▁Aufnahme	-11.1438
▁Bauarbeiten	-11.1438
▁Elder	-11.1438
▁Flügel	-11.1438
▁Fänger	-11.1438
▁Gymnastik	-11.1438
▁Inlineskates	-11.1438
▁Kettensäge	-11.1438
▁Laborkittel	-11.1438
▁Pferdeschw	-11.1438
▁Pudel	-11.1438
▁Saxofon	-11.1438
▁Strickmütze	-11.1438
▁Subway	-11.1438
▁Turban	-11.1438
▁Versammlung	-11.1438
▁Wakeboard	-11.1438
▁Warnweste	-11.1438
▁attention	-11.1438
▁bleachers	-11.1438
▁burgundy	-11.1438
▁chainsaw	-11.1438
▁debris	-11.1438
▁factory	-11.1438
▁gestikuliert	-11.1438
▁groceries	-11.1438
▁jubelt	-11.1438
▁klatscht	-11.1438
▁lecture	-11.1438
▁leotard	-11.1438
▁oven	-11.1438
▁portrait	-11.1438
▁rickshaw	-11.1438
▁service	-11.1438
▁sneakers	-11.1438
▁sniff	-11.1438
▁sunbath	-11.1438
▁telephone	-11.1438
▁ungewöhnliche	-11.1438
▁Anhänger	-11.1438
▁High	-11.1438
▁Vortrag	-11.1438
▁contest	-11.1438
▁though	-11.1438
▁ticket	-11.1438
▁world	-11.1438
▁Shop	-11.1438
▁loom	-11.1438
▁Werkstatt	-11.1438
▁Athlet	-11.1438
▁rauchen	-11.1438
▁Fackel	-11.1438
▁crawl	-11.1438
▁Lacrosse	-11.1438
▁peak	-11.1438
▁brauen	-11.1438
▁Ausstellung	-11.1438
▁gemusterte	-11.1438
▁dusk	-11.1438
Kittel	-11.1438
außen	-11.1438
▁Halstuch	-11.1438
▁assist	-11.1438
▁glid	-11.1438
▁spotted	-11.1438
▁Marathonläufer	-11.1438
▁Europe	-11.1438
▁Kabel	-11.1438
▁bilden	-11.1438
▁pay	-11.1438
▁Golfball	-11.1439
▁score	-11.1439
▁burn	-11.1439
▁bound	-11.1439
▁besucht	-11.1439
▁surg	-11.144
▁Gehen	-11.144
haube	-11.1441
▁Tüte	-11.1441
platte	-11.1442
▁Bass	-11.1443
▁ceremony	-11.1444
▁mug	-11.1444
▁overhead	-11.1445
▁waterfront	-11.1447
▁Asien	-11.1447
ständer	-11.1448
▁movie	-11.1448
▁Sandwich	-11.1449
▁wings	-11.1449
▁Uhr	-11.1451
▁messy	-11.1452
▁studying	-11.1455
▁Stern	-11.1456
▁coaster	-11.1457
▁bevor	-11.1459
▁Video	-11.146
ative	-11.146
▁Sieg	-11.1463
gefahren	-11.1468
▁twi	-11.1469
▁leckt	-11.147
▁praying	-11.1475
▁Boxer	-11.1478
▁lower	-11.1483
▁careful	-11.1485
▁mi	-11.1487
▁waterway	-11.1493
öse	-11.1498
▁Kasse	-11.1514
▁meeting	-11.1516
▁Maler	-11.1524
▁Bällen	-11.153
▁Station	-11.1534
▁Hochzeitskleid	-11.1545
▁gestures	-11.1546
▁eben	-11.1548
▁mess	-11.1558
cause	-11.1561
▁Tänzerin	-11.1572
▁Softballspiel	-11.1578
Spring	-11.1585
Rennfahrer	-11.1587
▁Schilder	-11.1591
▁graben	-11.1598
▁She	-11.1654
▁dig	-11.1668
▁grillen	-11.1675
▁fashion	-11.1767
liegenden	-11.1792
▁Straßenarbeite	-11.1807
▁Kunstwerke	-11.1829
▁Kle	-11.1886
utter	-11.1886
nehmen	-11.1901
▁boxer	-11.1904
zw	-11.1917
▁Klein	-11.1991
▁listen	-11.2011
kund	-11.2032
▁Student	-11.2054
▁tourist	-11.2093
▁chines	-11.2118
▁Stroh	-11.2128
hole	-11.2134
affe	-11.2143
▁Bälle	-11.2173
▁Köpfe	-11.2173
▁Welpe	-11.2174
▁Hüte	-11.2176
▁America	-11.2176
instrument	-11.2178
horn	-11.2179
führen	-11.2182
coat	-11.2184
gestreifte	-11.2185
house	-11.2185
springt	-11.2185
▁scaffold	-11.2188
Hut	-11.2189
▁meet	-11.2194
▁strap	-11.2197
▁spin	-11.2211
▁Ju	-11.2231
▁Tätowierung	-11.2232
▁mow	-11.2238
nzende	-11.2239
▁Reise	-11.2241
▁sweat	-11.2241
▁Tiere	-11.2249
▁Beleuchtung	-11.2256
kuchen	-11.2258
becken	-11.2259
Ha	-11.2263
▁call	-11.2264
gehoben	-11.2266
▁Kreuz	-11.2268
scheibe	-11.2269
oberteil	-11.227
▁Jahr	-11.2271
mount	-11.2271
▁Mexic	-11.2271
adminton	-11.2271
projekt	-11.2271
uarterback	-11.2271
▁Asphalt	-11.2271
▁Imbiss	-11.2271
▁Kneipe	-11.2271
▁Schieß	-11.2271
▁Umhänge	-11.2271
▁Wassermelone	-11.2271
▁Werfer	-11.2271
▁acrobat	-11.2271
▁angeboten	-11.2271
▁await	-11.2271
▁descend	-11.2271
▁motion	-11.2271
▁pumpkin	-11.2271
▁reflektierende	-11.2271
▁support	-11.2271
▁verletzt	-11.2271
Präsentation	-11.2271
Seattle	-11.2271
behälter	-11.2271
quoi	-11.2271
schlauch	-11.2271
schnüffelt	-11.2271
▁Anweisung	-11.2271
▁Bahngleis	-11.2271
▁Bambus	-11.2271
▁Banjo	-11.2271
▁Banner	-11.2271
▁Draht	-11.2271
▁Fabrik	-11.2271
▁Female	-11.2271
▁Früchte	-11.2271
▁Haltung	-11.2271
▁Hinterbeine	-11.2271
▁Kellner	-11.2271
▁Lieferwagen	-11.2271
▁Operation	-11.2271
▁Pilot	-11.2271
▁Police	-11.2271
▁Rikscha	-11.2271
▁Schulkinder	-11.2271
▁Teilnehmer	-11.2271
▁Treppenstufen	-11.2271
▁Vergnügungspark	-11.2271
▁Während	-11.2271
▁ansieht	-11.2271
▁attracti	-11.2271
▁aufgereiht	-11.2271
▁backdrop	-11.2271
▁bamboo	-11.2271
▁banana	-11.2271
▁begeistert	-11.2271
▁begleitet	-11.2271
▁beisammen	-11.2271
▁celebration	-11.2271
▁crayon	-11.2271
▁elektrische	-11.2271
▁experiment	-11.2271
▁explor	-11.2271
▁herumstehen	-11.2271
▁iPod	-11.2271
▁inspizier	-11.2271
▁juice	-11.2271
▁kümmert	-11.2271
▁merchandise	-11.2271
▁monument	-11.2271
▁pigtails	-11.2271
▁poodle	-11.2271
▁prüft	-11.2271
▁purchas	-11.2271
▁sailboat	-11.2271
▁schnitzt	-11.2271
▁second	-11.2271
▁select	-11.2271
▁struggl	-11.2271
▁trolley	-11.2271
▁trübe	-11.2271
▁turban	-11.2271
▁umpire	-11.2271
▁unique	-11.2271
▁watermelon	-11.2271
▁Cello	-11.2271
▁Namensschild	-11.2271
▁Nebel	-11.2271
▁Rettungs	-11.2271
▁School	-11.2271
▁banjo	-11.2271
▁bystanders	-11.2271
▁knife	-11.2271
▁location	-11.2271
▁schützen	-11.2271
▁stoop	-11.2271
▁cello	-11.2271
▁clapping	-11.2271
▁sauber	-11.2271
▁Einkäufer	-11.2271
▁crown	-11.2271
▁lernt	-11.2271
▁Pink	-11.2271
▁lacrosse	-11.2271
▁Engel	-11.2271
▁forehead	-11.2271
▁tomato	-11.2271
▁Spaziergang	-11.2271
▁Waschbecken	-11.2271
▁fremde	-11.2271
▁strange	-11.2271
▁yoga	-11.2271
▁emergency	-11.2271
▁slic	-11.2271
Feuerwehrauto	-11.2271
▁task	-11.2271
▁putzen	-11.2271
▁Apfel	-11.2271
▁incline	-11.2271
▁Fischernetz	-11.2271
▁Snack	-11.2271
▁hip	-11.2271
▁schmale	-11.2271
ähne	-11.2271
▁gemacht	-11.2271
sägt	-11.2271
▁blood	-11.2271
▁deutsche	-11.2271
▁paddeln	-11.2272
▁Apple	-11.2272
▁Laster	-11.2272
▁Badeanzügen	-11.2272
▁Treppenhaus	-11.2272
▁Jeep	-11.2272
▁Strom	-11.2272
▁Board	-11.2272
züge	-11.2272
▁Sprungbrett	-11.2272
▁brother	-11.2272
▁Staub	-11.2272
▁tut	-11.2273
Maschendrahtzaun	-11.2273
▁Warte	-11.2273
▁Stahl	-11.2273
▁eight	-11.2273
▁countryside	-11.2273
▁knall	-11.2273
taubsaug	-11.2273
▁suchen	-11.2273
▁alleyway	-11.2274
▁chess	-11.2274
▁Betonwand	-11.2274
▁Bohr	-11.2274
kegel	-11.2274
▁paperwork	-11.2274
▁abgestellt	-11.2275
oga	-11.2275
▁soap	-11.2277
▁case	-11.2277
▁Papa	-11.2278
▁Schau	-11.2278
▁Fußballteam	-11.2279
▁firemen	-11.2279
▁wheelie	-11.228
▁fell	-11.228
▁sold	-11.2282
▁Autobahn	-11.2282
▁teal	-11.2282
▁flat	-11.2283
▁Wasserrutsche	-11.2283
ribal	-11.2283
▁Knöpfen	-11.2284
▁hotel	-11.2285
▁Ballett	-11.2285
▁Fahrradhelm	-11.2286
▁Schaf	-11.2286
▁gepunkteten	-11.2293
▁label	-11.2293
▁Sicht	-11.2294
▁wares	-11.23
▁mower	-11.2305
▁Mitarbeiter	-11.2307
▁Asia	-11.2307
gelenk	-11.2308
▁Tätowierungen	-11.231
▁Reis	-11.231
▁tropische	-11.2312
▁Gesichtern	-11.2312
zz	-11.2313
▁rust	-11.2314
▁packt	-11.2331
▁parasail	-11.2339
▁Dreirad	-11.2341
▁Klasse	-11.2344
wachsen	-11.2345
▁Medi	-11.2346
mannschaften	-11.2348
▁Geräten	-11.2351
▁stir	-11.2352
▁vordere	-11.2372
▁headdress	-11.2379
cial	-11.238
llow	-11.2408
▁bemalten	-11.241
▁package	-11.2412
▁dad	-11.2421
otte	-11.2423
▁Türen	-11.2465
pass	-11.2493
▁legen	-11.2499
▁geöffnet	-11.2541
ith	-11.2581
ston	-11.2602
schmiert	-11.2603
head	-11.2649
▁spa	-11.2656
chor	-11.2672
▁cro	-11.2681
▁Kleinkinder	-11.2685
stützt	-11.2708
▁fröhlich	-11.2721
▁orientalisch	-11.2725
▁Kerle	-11.2837
ppy	-11.2845
ular	-11.285
▁wi	-11.2871
▁port	-11.2876
grüne	-11.2879
▁versch	-11.289
▁find	-11.2921
▁niedrige	-11.2974
▁Nach	-11.299
▁Alter	-11.3013
tuch	-11.3021
▁dunkel	-11.3047
stab	-11.3054
ritten	-11.3065
ix	-11.3068
spritzt	-11.3083
▁flache	-11.3083
▁lock	-11.3087
graben	-11.3091
zeichnet	-11.3092
schwimmen	-11.3093
Outfit	-11.3093
onder	-11.3093
Geschäft	-11.3093
American	-11.3096
erkun	-11.3097
orange	-11.3097
ität	-11.31
▁Fahr	-11.3133
▁spike	-11.3135
ängen	-11.314
▁coast	-11.3157
tiefeln	-11.3175
▁swa	-11.3177
▁construct	-11.3178
künstler	-11.3179
▁Picknick	-11.3179
automaten	-11.318
nterwäsche	-11.318
tafel	-11.318
▁elevat	-11.318
▁unordentlich	-11.318
▁Beachvolleyball	-11.318
▁Felsvorsprung	-11.318
▁Zylinder	-11.318
▁assembl	-11.318
▁dribbl	-11.318
▁traurig	-11.318
Baseballschläger	-11.318
Festival	-11.318
Krankenschwester	-11.318
geschoben	-11.318
gespannt	-11.318
schüssel	-11.318
wettbewerb	-11.318
▁Batman	-11.318
▁Eiswaffel	-11.318
▁Erzeugnisse	-11.318
▁Experiment	-11.318
▁Geschwi	-11.318
▁Händchen	-11.318
▁Kragen	-11.318
▁Miami	-11.318
▁Monopoly	-11.318
▁Möwe	-11.318
▁Namen	-11.318
▁Pfeil	-11.318
▁Rahmen	-11.318
▁Runners	-11.318
▁Röhre	-11.318
▁Smoking	-11.318
▁Stunt	-11.318
▁Telefonzelle	-11.318
▁Türöffnung	-11.318
▁Ureinwohner	-11.318
▁Vorderseite	-11.318
▁Vorrichtung	-11.318
▁Webstuhl	-11.318
▁abgeworfen	-11.318
▁accompani	-11.318
▁arcade	-11.318
▁attraktive	-11.318
▁auditorium	-11.318
▁bräunliche	-11.318
▁cheese	-11.318
▁christmas	-11.318
▁expression	-11.318
▁gefleckte	-11.318
▁guide	-11.318
▁handrail	-11.318
▁huddle	-11.318
▁judge	-11.318
▁laundromat	-11.318
▁measur	-11.318
▁möglicherweise	-11.318
▁notebook	-11.318
▁parallel	-11.318
▁pocket	-11.318
▁präsentiert	-11.318
▁puppies	-11.318
▁rapids	-11.318
▁rifle	-11.318
▁rollerblading	-11.318
▁rückwärts	-11.318
▁sammeln	-11.318
▁schwebt	-11.318
▁schütteln	-11.318
▁serviert	-11.318
▁säuber	-11.318
▁underwear	-11.318
▁unusual	-11.318
▁vergnügt	-11.318
▁visible	-11.318
▁weapon	-11.318
wohn	-11.318
▁pirate	-11.318
▁schwingen	-11.318
▁Banane	-11.318
▁Lasso	-11.318
▁Lippen	-11.318
▁besteht	-11.318
▁versteck	-11.318
▁yarn	-11.318
▁Beamte	-11.318
▁Perlen	-11.318
▁butcher	-11.318
▁gesprungen	-11.318
▁separate	-11.318
▁staubige	-11.318
▁verteilt	-11.318
▁surgery	-11.318
▁Werbe	-11.318
▁potato	-11.318
▁Lagerfeuer	-11.318
▁Rosa	-11.318
▁rudern	-11.318
▁schlecht	-11.318
füllen	-11.318
▁supplies	-11.318
▁rice	-11.318
▁verzierte	-11.318
▁Ofen	-11.318
leitung	-11.318
▁Tracht	-11.318
▁medium	-11.318
▁Turnschuhen	-11.318
▁heavi	-11.318
▁Begleit	-11.318
▁Walk	-11.318
▁Bordstein	-11.318
▁Kante	-11.318
gitter	-11.318
▁Untergrund	-11.318
▁Ziegelsteine	-11.318
▁joy	-11.318
▁Erdhügel	-11.318
becher	-11.318
▁Horn	-11.318
▁grauhaarige	-11.318
▁pedal	-11.318
oogie	-11.3181
▁attack	-11.3181
rtikel	-11.3181
▁Nagel	-11.3181
▁transportiert	-11.3181
▁chalkboard	-11.3181
▁Dirt	-11.3181
▁Parti	-11.3181
▁teilnehmen	-11.3181
▁Schlagmann	-11.3181
▁Brettspiel	-11.3181
▁Karussell	-11.3181
▁suspenders	-11.3182
▁politi	-11.3182
▁spanische	-11.3182
dition	-11.3182
▁Redner	-11.3182
▁Stofftier	-11.3182
▁Geländewagen	-11.3182
▁meiste	-11.3182
▁dump	-11.3182
▁Dunk	-11.3183
▁shoreline	-11.3183
phon	-11.3183
▁human	-11.3183
▁reflection	-11.3183
▁homeless	-11.3184
reckt	-11.3184
▁Ruder	-11.3184
▁Obststand	-11.3185
burg	-11.3185
ansammlung	-11.3185
▁Fußballdress	-11.3185
▁chatting	-11.3185
sichtig	-11.3185
Saiteninstrument	-11.3186
▁descent	-11.3186
rimmed	-11.3186
echten	-11.3186
▁sunlight	-11.3186
wolke	-11.3186
▁Einsatz	-11.3187
pult	-11.3187
▁baum	-11.3187
▁Dock	-11.3188
▁stall	-11.3189
▁highway	-11.3189
punkt	-11.3189
mauer	-11.3189
▁lens	-11.319
▁retriev	-11.319
▁Bord	-11.319
▁Dress	-11.3191
▁Holzbank	-11.3191
▁Fass	-11.3196
▁Pass	-11.3196
▁geschnitten	-11.3198
▁Eiscreme	-11.3198
▁TV	-11.3198
▁ador	-11.32
▁screaming	-11.3201
▁angebracht	-11.3201
ough	-11.3201
▁squat	-11.3203
▁Gläsern	-11.3204
▁Schnur	-11.3204
▁treiben	-11.3204
▁Stab	-11.3204
fang	-11.3207
▁bietet	-11.321
▁chip	-11.3211
▁langärmeligen	-11.3213
▁fern	-11.3215
▁closely	-11.3215
▁single	-11.3216
Sicherheitsweste	-11.3216
▁defender	-11.3217
▁Gericht	-11.3217
▁Post	-11.3222
überdachte	-11.3226
▁Lu	-11.3228
▁folded	-11.323
lapp	-11.3235
säge	-11.3235
▁carve	-11.3244
▁furr	-11.3245
▁goldfarbene	-11.325
ehrt	-11.325
gläser	-11.3253
▁dropp	-11.3265
▁lifted	-11.3281
▁pflanz	-11.3289
▁Rast	-11.3289
▁hind	-11.3321
wart	-11.3333
kopf	-11.334
▁ballet	-11.3369
schiedenfarbige	-11.3383
▁speaker	-11.3404
▁stepp	-11.3406
▁ruhige	-11.3422
zunehmen	-11.3457
schuhen	-11.346
▁fein	-11.3469
Straßenverkäufer	-11.3486
aune	-11.3536
▁late	-11.3544
▁Schneeschuhe	-11.368
rädern	-11.3742
iko	-11.3769
dding	-11.3846
▁bedruckte	-11.3863
rmel	-11.3887
kommen	-11.3903
▁Asiat	-11.3909
▁Bad	-11.3925
farbig	-11.3947
▁flo	-11.3952
▁neu	-11.3961
▁candle	-11.4003
▁sip	-11.401
führung	-11.4052
ional	-11.4074
▁even	-11.4076
▁Pflanze	-11.4085
▁sandige	-11.4085
folgt	-11.409
Scheibe	-11.4091
schlafen	-11.4092
hammer	-11.4093
guckt	-11.4093
body	-11.4094
Kleidung	-11.4094
gucken	-11.4094
hinter	-11.4094
green	-11.4094
zieht	-11.4104
back	-11.4136
▁padd	-11.4141
▁amüsier	-11.4142
▁kau	-11.4167
violett	-11.4167
▁apart	-11.4171
zaun	-11.4174
hepherd	-11.4175
pectators	-11.4177
▁instruct	-11.4177
▁conduct	-11.4177
▁transport	-11.4178
treppe	-11.4179
edestrians	-11.4179
▁sculpt	-11.4179
brücke	-11.418
drängt	-11.418
trommel	-11.418
Obama	-11.418
▁British	-11.418
▁Demonstrant	-11.418
▁harvest	-11.418
▁launch	-11.418
▁maneuver	-11.418
▁verbunden	-11.418
bändern	-11.418
digkeit	-11.418
ffentlichkeit	-11.418
gepackt	-11.418
konzert	-11.418
ntfern	-11.418
wissenschaftlich	-11.418
▁Auslage	-11.418
▁Bergsteiger	-11.418
▁Bruder	-11.418
▁Canad	-11.418
▁Couple	-11.418
▁Dämmerung	-11.418
▁Fontäne	-11.418
▁Gipfel	-11.418
▁Hoodie	-11.418
▁Hüfte	-11.418
▁Jogger	-11.418
▁Kiefer	-11.418
▁Kühl	-11.418
▁Leinwand	-11.418
▁Obdachlose	-11.418
▁Olympische	-11.418
▁Porträt	-11.418
▁Pullunder	-11.418
▁Sattel	-11.418
▁Schaulustige	-11.418
▁Schmetterling	-11.418
▁Stelzen	-11.418
▁Strumpfhose	-11.418
▁Verteidiger	-11.418
▁Volks	-11.418
▁Zahn	-11.418
▁abgebildet	-11.418
▁activity	-11.418
▁bewaldete	-11.418
▁blazer	-11.418
▁bouquet	-11.418
▁canvas	-11.418
▁contraption	-11.418
▁curve	-11.418
▁earphones	-11.418
▁elektronische	-11.418
▁embracing	-11.418
▁erhobene	-11.418
▁erklimmen	-11.418
▁facility	-11.418
▁frozen	-11.418
▁gallery	-11.418
▁injured	-11.418
▁interesting	-11.418
▁jeweil	-11.418
▁kratzt	-11.418
▁leggings	-11.418
▁ließt	-11.418
▁lobby	-11.418
▁löschen	-11.418
▁medizinische	-11.418
▁militärische	-11.418
▁neugeborene	-11.418
▁passersby	-11.418
▁patron	-11.418
▁pillar	-11.418
▁quarterback	-11.418
▁quickly	-11.418
▁quiet	-11.418
▁schneit	-11.418
▁section	-11.418
▁senior	-11.418
▁stilts	-11.418
▁stolz	-11.418
▁trashcan	-11.418
▁valley	-11.418
▁wakeboard	-11.418
▁workshop	-11.418
▁Design	-11.418
▁Drink	-11.418
▁Kabine	-11.418
▁Leggings	-11.418
▁angemalte	-11.418
▁flash	-11.418
▁recline	-11.418
▁special	-11.418
▁blurr	-11.418
▁emerg	-11.418
▁fischt	-11.418
▁highchair	-11.418
▁lemon	-11.418
▁trifft	-11.418
▁unterrichtet	-11.418
▁verwenden	-11.418
heruntergekommen	-11.418
▁interagier	-11.418
▁letzte	-11.418
▁bockende	-11.418
▁einfach	-11.418
▁scrap	-11.418
▁Kilt	-11.418
▁Laterne	-11.418
▁Reklametafel	-11.418
▁mischt	-11.418
▁monkey	-11.418
▁Käse	-11.418
▁Unfall	-11.418
▁dumpster	-11.418
▁Ampel	-11.418
▁modisch	-11.418
loseup	-11.418
▁Player	-11.418
▁snap	-11.418
▁Freizeitpark	-11.418
▁twirl	-11.418
lannel	-11.418
▁Garn	-11.418
▁than	-11.418
▁Klappstuhl	-11.418
▁sideways	-11.418
▁Essensstand	-11.418
greif	-11.418
▁Waschmaschine	-11.418
▁tripod	-11.418
▁organiz	-11.418
▁Mülleimer	-11.4181
uad	-11.4181
▁Esstisch	-11.4181
▁Ziellinie	-11.4181
▁spotlight	-11.4181
schlacht	-11.4181
zoo	-11.4181
▁need	-11.4181
▁Schutt	-11.4181
▁kauert	-11.4181
▁transportation	-11.4181
▁festgebunden	-11.4181
▁Ziegelwand	-11.4181
▁schipp	-11.4181
▁Marke	-11.4181
tackelt	-11.4181
▁rally	-11.4181
▁Lots	-11.4181
▁Steintreppe	-11.4181
▁rutschen	-11.4181
▁Schiene	-11.4181
▁Unterhemd	-11.4181
stroke	-11.4181
▁Rasier	-11.4181
theke	-11.4182
▁erleuchtete	-11.4182
▁Block	-11.4182
▁Winterjacke	-11.4182
▁Rugbyspieler	-11.4182
chnitt	-11.4182
▁artwork	-11.4182
▁Metallstange	-11.4182
▁diner	-11.4182
▁Holzzaun	-11.4182
nähe	-11.4183
▁Landstraße	-11.4183
▁driveway	-11.4183
▁Axt	-11.4183
▁staff	-11.4183
▁Straßenseite	-11.4183
▁Aufzug	-11.4184
▁Streich	-11.4185
▁Turm	-11.4185
▁Innen	-11.4185
▁battl	-11.4185
▁tail	-11.4185
garten	-11.4185
▁rooftop	-11.4186
ingham	-11.4186
▁sorg	-11.4186
▁Farm	-11.4186
▁done	-11.4187
grün	-11.4187
junge	-11.4188
▁erhält	-11.4188
nude	-11.4188
▁Holzboden	-11.4188
▁Khakihose	-11.4189
▁steer	-11.4189
▁Sari	-11.419
▁wenig	-11.4191
kiste	-11.4192
▁mass	-11.4192
▁cable	-11.4193
uell	-11.4195
▁Segel	-11.4196
▁gesehen	-11.4196
▁roadside	-11.4198
▁Bandmitglieder	-11.4199
▁branches	-11.4199
▁Bill	-11.4202
▁approaches	-11.4205
▁workout	-11.4207
▁Gleisen	-11.4207
▁größeren	-11.4211
bogen	-11.4214
spitze	-11.4215
▁fischen	-11.4216
▁filmt	-11.4225
▁tutu	-11.4231
▁formt	-11.4233
▁Sommer	-11.4239
oney	-11.4244
▁streichen	-11.4253
▁Gitarristen	-11.4257
▁Schritt	-11.4259
▁passiert	-11.4275
Schutzausrüstung	-11.4293
▁musta	-11.4317
▁navigate	-11.4335
Wel	-11.4355
▁real	-11.4359
▁darin	-11.436
▁squa	-11.4361
wend	-11.4381
▁fit	-11.4385
▁strike	-11.4392
▁mind	-11.4408
spi	-11.4451
▁wirk	-11.4453
▁main	-11.4468
▁Fu	-11.4474
▁drape	-11.4497
ücke	-11.4501
mach	-11.4517
▁fat	-11.4526
ngles	-11.4535
▁zweite	-11.4629
loch	-11.4644
training	-11.4694
▁power	-11.4725
▁appl	-11.4743
▁Pla	-11.4828
▁classic	-11.4861
schl	-11.4876
dults	-11.4881
tzen	-11.49
▁gaz	-11.4923
iki	-11.4937
maske	-11.4989
konstruktion	-11.501
▁bark	-11.5048
ipping	-11.5055
▁sad	-11.5085
bett	-11.5086
legen	-11.5126
hütte	-11.5146
▁groß	-11.5172
▁drop	-11.5188
▁bicycl	-11.5189
▁kalte	-11.5195
▁steile	-11.5195
▁Farb	-11.5202
nimmt	-11.5204
Team	-11.5204
werfen	-11.5204
gibt	-11.5205
Mannschaft	-11.5205
girl	-11.5205
Basketball	-11.5205
striped	-11.5205
field	-11.5205
person	-11.5206
party	-11.5207
geben	-11.5215
▁buck	-11.5216
friend	-11.5218
▁spazier	-11.5229
▁sprinkl	-11.5231
▁Mitglied	-11.524
▁Hockeyspiel	-11.5255
haarige	-11.5255
▁Handwerk	-11.526
▁näher	-11.527
▁Geburtstag	-11.5273
leuchtet	-11.5279
▁Flip	-11.5283
▁chin	-11.5288
▁demonstrat	-11.5289
schmuck	-11.529
gebunden	-11.529
zimmer	-11.5291
schreib	-11.5291
▁horizon	-11.5291
▁monk	-11.5291
streifen	-11.5291
fältig	-11.5291
gehängt	-11.5291
▁Absperrung	-11.5291
▁Disney	-11.5291
▁Konstruktion	-11.5291
▁Kraft	-11.5291
▁Käfig	-11.5291
▁Zusammen	-11.5291
▁every	-11.5291
▁gebückt	-11.5291
▁squeez	-11.5291
▁unhappy	-11.5291
fahrrad	-11.5291
karren	-11.5291
putzer	-11.5291
schnapp	-11.5291
schützer	-11.5291
struktur	-11.5291
technik	-11.5291
vorrichtung	-11.5291
▁Bauernmarkt	-11.5291
▁Begeisterung	-11.5291
▁Betrachter	-11.5291
▁Beutel	-11.5291
▁Bicyclist	-11.5291
▁Bündel	-11.5291
▁Concert	-11.5291
▁Darbietung	-11.5291
▁Felsbrocken	-11.5291
▁Flussufer	-11.5291
▁Forscher	-11.5291
▁Garage	-11.5291
▁Gehstock	-11.5291
▁Hamburger	-11.5291
▁Irokesenschnitt	-11.5291
▁Kapuzenpullover	-11.5291
▁Karohemd	-11.5291
▁Mönch	-11.5291
▁Nachbarschaft	-11.5291
▁Neugeborenes	-11.5291
▁Nudel	-11.5291
▁Speedo	-11.5291
▁Stativ	-11.5291
▁Stromschnellen	-11.5291
▁University	-11.5291
▁Wollmütze	-11.5291
▁afternoon	-11.5291
▁akustische	-11.5291
▁anhaben	-11.5291
▁ausgezogen	-11.5291
▁bathtub	-11.5291
▁bedroom	-11.5291
▁belongings	-11.5291
▁breakdancing	-11.5291
▁butterfly	-11.5291
▁bürste	-11.5291
▁caucasian	-11.5291
▁chocolate	-11.5291
▁chopsticks	-11.5291
▁concentrat	-11.5291
▁congregate	-11.5291
▁content	-11.5291
▁digital	-11.5291
▁dribbelt	-11.5291
▁entfernen	-11.5291
▁erhöht	-11.5291
▁folgen	-11.5291
▁foliage	-11.5291
▁förmlich	-11.5291
▁getroffen	-11.5291
▁helicopter	-11.5291
▁heraushängen	-11.5291
▁illuminat	-11.5291
▁industri	-11.5291
▁kastanienbraune	-11.5291
▁morning	-11.5291
▁muskul	-11.5291
▁möchte	-11.5291
▁nächtliche	-11.5291
▁pencil	-11.5291
▁pilot	-11.5291
▁pinata	-11.5291
▁rollerblades	-11.5291
▁schlendert	-11.5291
▁schmetter	-11.5291
▁schützt	-11.5291
▁seagull	-11.5291
▁smooth	-11.5291
▁sparring	-11.5291
▁umzäunte	-11.5291
▁unglücklich	-11.5291
▁unload	-11.5291
▁vergnügen	-11.5291
▁vorführt	-11.5291
▁völlig	-11.5291
▁Lokal	-11.5291
▁Muslim	-11.5291
▁bedienen	-11.5291
▁built	-11.5291
▁gesturing	-11.5291
▁know	-11.5291
▁lasso	-11.5291
▁shawl	-11.5291
▁waist	-11.5291
ändige	-11.5291
▁Morgen	-11.5291
▁numer	-11.5291
▁pads	-11.5291
▁Pelz	-11.5291
▁bindet	-11.5291
▁gefangen	-11.5291
▁Verkaufsstand	-11.5291
▁border	-11.5291
▁mechanic	-11.5291
turnier	-11.5291
▁cherry	-11.5291
▁umringt	-11.5291
▁wrist	-11.5291
▁erreichen	-11.5291
ahrschein	-11.5291
▁Schlafzimmer	-11.5291
▁Camping	-11.5291
▁Perücke	-11.5291
▁Pirat	-11.5291
▁letter	-11.5291
▁pretend	-11.5291
kraft	-11.5291
▁riot	-11.5291
▁Wildwasser	-11.5291
▁decorations	-11.5291
▁ATM	-11.5291
▁hocken	-11.5291
▁dränge	-11.5291
▁Flipflops	-11.5291
▁season	-11.5291
▁gemalt	-11.5291
▁historische	-11.5291
östliche	-11.5291
▁Nachrichten	-11.5291
▁Oberfläche	-11.5291
blöcke	-11.5291
▁cannon	-11.5291
▁synchroniz	-11.5291
▁daran	-11.5292
▁rostige	-11.5292
▁sichtbar	-11.5292
▁Plüschtier	-11.5292
▁Paket	-11.5292
▁Polohemd	-11.5292
mitarbeiter	-11.5292
▁Außenbereich	-11.5292
▁spül	-11.5292
▁Aufgabe	-11.5292
▁Mitspieler	-11.5292
▁Regenbogen	-11.5292
▁Ziegelgebäude	-11.5292
▁Speer	-11.5292
▁Ansicht	-11.5292
▁Fußballtrikot	-11.5293
▁raincoat	-11.5293
▁Tanzfläche	-11.5293
▁beret	-11.5293
▁Spiegelbild	-11.5293
▁Studio	-11.5293
▁Laufbahn	-11.5293
▁angehalten	-11.5293
▁install	-11.5293
reihe	-11.5293
▁Rasenfläche	-11.5293
eister	-11.5294
späht	-11.5294
▁sonnen	-11.5294
▁stump	-11.5294
▁hook	-11.5294
▁Nike	-11.5294
▁langärmlige	-11.5294
▁protestiert	-11.5294
▁Sandburg	-11.5294
▁gelangen	-11.5294
▁Plate	-11.5294
▁icy	-11.5294
▁Kopfschmuck	-11.5295
▁Kampfsportler	-11.5295
▁Sandhügel	-11.5295
▁grasp	-11.5295
▁Tennisplatz	-11.5296
▁rake	-11.5296
▁braid	-11.5296
kasten	-11.5297
▁Shepherd	-11.5297
▁Musikgruppe	-11.5297
▁Ober	-11.53
▁file	-11.53
▁Eiswagen	-11.5301
▁want	-11.5301
▁trench	-11.5301
▁pathway	-11.5302
▁arriv	-11.5302
count	-11.5302
rrangement	-11.5302
▁Grau	-11.5304
▁cott	-11.5305
▁Wasserbecken	-11.5306
zzy	-11.5311
▁checkers	-11.5312
▁raus	-11.5312
▁Patienten	-11.5312
▁Wohnung	-11.5313
▁dri	-11.5314
miling	-11.5319
▁Wasserfläche	-11.532
▁Arab	-11.532
▁bestellen	-11.5323
▁Inder	-11.5331
▁mur	-11.5332
eimer	-11.5334
▁hervor	-11.5344
▁brushes	-11.5348
▁think	-11.5351
▁wieder	-11.5354
▁cookie	-11.5355
heel	-11.5356
▁crack	-11.5362
▁Großer	-11.5364
▁varie	-11.5366
aint	-11.5379
Logo	-11.5398
Bron	-11.5403
▁Pose	-11.5403
anyon	-11.5405
artender	-11.5407
▁cave	-11.5412
inting	-11.5416
ohawk	-11.5429
Wh	-11.5443
▁Mit	-11.545
▁Tennisschuh	-11.5454
oße	-11.5466
bell	-11.547
Car	-11.5502
▁verbring	-11.5522
truck	-11.5534
ford	-11.5571
▁vorübergeh	-11.5576
gefeuert	-11.5579
Holzkonstruktion	-11.5581
day	-11.5589
besuch	-11.5606
üste	-11.5653
▁Wett	-11.5661
▁farbenfroh	-11.5664
▁Schweiß	-11.5671
▁Rac	-11.5748
owl	-11.5761
front	-11.5761
werkzeug	-11.5794
▁shi	-11.582
agged	-11.585
▁gerichtet	-11.5878
▁albern	-11.5884
▁bake	-11.5889
▁Chi	-11.5896
fashioned	-11.5934
▁bestehend	-11.5937
hof	-11.5939
▁blaugrüne	-11.5959
▁Nin	-11.6005
▁verlassene	-11.6034
▁splash	-11.6043
▁ruhig	-11.6046
▁Bauwerk	-11.6063
iegt	-11.6077
▁schwimmende	-11.6087
ränkte	-11.6198
feuert	-11.6239
▁sleep	-11.6284
▁lea	-11.6324
cap	-11.6346
ütze	-11.6354
▁gesture	-11.6363
pflanze	-11.6391
▁Kid	-11.6401
amerikanische	-11.6415
▁frei	-11.6428
▁indian	-11.6434
kommt	-11.6445
▁Stiefel	-11.6446
▁India	-11.6446
▁hellblaue	-11.6448
tragen	-11.645
crew	-11.6453
▁Taube	-11.6453
paved	-11.6454
hoop	-11.6454
cast	-11.6455
Football	-11.6455
wirft	-11.6455
orangefarbenen	-11.6455
piece	-11.6457
Band	-11.646
eginn	-11.6465
irefighters	-11.6488
▁größer	-11.6502
▁Frei	-11.6511
▁Footballspiel	-11.6524
▁compan	-11.6526
agle	-11.653
▁Khaki	-11.653
äufer	-11.6534
▁clut	-11.6538
saugt	-11.6538
ctors	-11.6538
▁vend	-11.6539
edient	-11.654
verkauf	-11.654
▁Schlaf	-11.654
▁Tank	-11.654
caf	-11.6541
▁cigar	-11.6541
zentrum	-11.6541
amaha	-11.6541
▁Fotograph	-11.6541
▁Reparatur	-11.6541
▁Teddybär	-11.6541
▁Urlaub	-11.6541
▁Zeichnung	-11.6541
▁dirigier	-11.6541
▁kimono	-11.6541
▁powder	-11.6541
▁register	-11.6541
▁religious	-11.6541
▁verwirrt	-11.6541
Flops	-11.6541
bluse	-11.6541
führer	-11.6541
klammert	-11.6541
objekt	-11.6541
orridor	-11.6541
papier	-11.6541
pfosten	-11.6541
wählt	-11.6541
ylophon	-11.6541
zündet	-11.6541
▁Aktentasche	-11.6541
▁Backflip	-11.6541
▁Baumstumpf	-11.6541
▁Blaskapelle	-11.6541
▁Deere	-11.6541
▁Domino	-11.6541
▁Dunkelheit	-11.6541
▁Feuerstelle	-11.6541
▁Fächer	-11.6541
▁Glatze	-11.6541
▁Gleichgewicht	-11.6541
▁Horizont	-11.6541
▁Hängematte	-11.6541
▁KitchenAid	-11.6541
▁Marmor	-11.6541
▁Musician	-11.6541
▁Müllcontainer	-11.6541
▁Oldtimer	-11.6541
▁Pfeife	-11.6541
▁Pistole	-11.6541
▁Regal	-11.6541
▁Rollerskate	-11.6541
▁Schlucht	-11.6541
▁Smartphone	-11.6541
▁Spielsachen	-11.6541
▁Starbucks	-11.6541
▁Supermarkt	-11.6541
▁Vendor	-11.6541
▁Verschiedene	-11.6541
▁Videokamera	-11.6541
▁Wassersprenger	-11.6541
▁Wildnis	-11.6541
▁Zahnbürste	-11.6541
▁Zeremonie	-11.6541
▁Zigarre	-11.6541
▁abandoned	-11.6541
▁accident	-11.6541
▁ascend	-11.6541
▁ausländische	-11.6541
▁babies	-11.6541
▁befindliche	-11.6541
▁blühende	-11.6541
▁briefcase	-11.6541
▁burgunderrote	-11.6541
▁campfire	-11.6541
▁chisel	-11.6541
▁communicat	-11.6541
▁complex	-11.6541
▁connect	-11.6541
▁cupcake	-11.6541
▁cycling	-11.6541
▁dekorative	-11.6541
▁destination	-11.6541
▁dinosaur	-11.6541
▁easel	-11.6541
▁eingewickelt	-11.6541
▁einheimische	-11.6541
▁erklimmt	-11.6541
▁establishment	-11.6541
▁faulenzen	-11.6541
▁geflochtene	-11.6541
▁gefrorene	-11.6541
▁gesenkte	-11.6541
▁greet	-11.6541
▁hammock	-11.6541
▁harmonica	-11.6541
▁hochhackige	-11.6541
▁hydrant	-11.6541
▁hüpfen	-11.6541
▁irgendwo	-11.6541
▁kanadische	-11.6541
▁krabbel	-11.6541
▁kämpft	-11.6541
▁laboratory	-11.6541
▁lohfarbene	-11.6541
▁maintenance	-11.6541
▁mittelgroße	-11.6541
▁pyramid	-11.6541
▁rabbit	-11.6541
▁rührt	-11.6541
▁schwenken	-11.6541
▁shield	-11.6541
▁skull	-11.6541
▁telefonieren	-11.6541
▁toothbrush	-11.6541
▁tournament	-11.6541
▁tracksuit	-11.6541
▁treadmill	-11.6541
▁turkey	-11.6541
▁tuxedo	-11.6541
▁underground	-11.6541
▁vibrant	-11.6541
▁victory	-11.6541
▁warehouse	-11.6541
▁xylophone	-11.6541
▁öffnen	-11.6541
onvention	-11.6541
▁Buchstaben	-11.6541
▁Kaufhaus	-11.6541
▁Oklahoma	-11.6541
▁darüber	-11.6541
▁mannequin	-11.6541
▁marble	-11.6541
rahmen	-11.6541
rosscountry	-11.6541
▁Eisenbahn	-11.6541
▁extend	-11.6541
▁gelegenen	-11.6541
▁gewinnen	-11.6541
▁jeep	-11.6541
▁sample	-11.6541
▁year	-11.6541
vollständig	-11.6541
▁Hispan	-11.6541
▁Kaffeetasse	-11.6541
▁Sonnenlicht	-11.6541
▁bib	-11.6541
▁handbag	-11.6541
▁shoppers	-11.6541
▁specta	-11.6541
▁Hosenträgern	-11.6541
▁Indien	-11.6541
▁Rosen	-11.6541
▁troop	-11.6541
Bahnstation	-11.6541
ußgängerübergang	-11.6541
terior	-11.6541
safe	-11.6541
▁Backsteinmauer	-11.6541
▁Gurt	-11.6541
▁gespielt	-11.6541
▁turtle	-11.6541
▁lernen	-11.6541
▁Life	-11.6541
▁tarp	-11.6541
▁bowtie	-11.6541
▁Blech	-11.6541
▁welche	-11.6541
▁plank	-11.6541
▁Braun	-11.6541
zuheben	-11.6541
▁Num	-11.6541
league	-11.6541
▁toilet	-11.6541
▁Badekappe	-11.6541
eopard	-11.6541
pfleg	-11.6541
▁olive	-11.6541
▁Wanne	-11.6542
▁beißen	-11.6542
kante	-11.6542
▁Oberhemd	-11.6542
▁nun	-11.6542
ansicht	-11.6542
▁cash	-11.6542
▁scrubs	-11.6542
▁Unterhaltung	-11.6542
▁flame	-11.6542
▁Geldautomaten	-11.6542
▁Billard	-11.6542
▁Schutzweste	-11.6542
trennt	-11.6542
▁rush	-11.6542
▁Sommertag	-11.6542
▁Militäruniform	-11.6542
▁sari	-11.6542
▁Grünfläche	-11.6542
▁sledding	-11.6542
▁Europa	-11.6542
▁Besuch	-11.6542
▁Vorführung	-11.6542
▁Hochstuhl	-11.6542
▁Straßenszene	-11.6542
inivan	-11.6542
▁yell	-11.6542
schlendern	-11.6542
▁Ziegelbau	-11.6542
▁schlanke	-11.6542
▁Betonmauer	-11.6543
▁Laufband	-11.6543
▁Look	-11.6543
▁Wippe	-11.6543
▁Chef	-11.6543
▁Randstein	-11.6543
▁Popcorn	-11.6543
▁Neben	-11.6543
▁Straßenfest	-11.6544
▁mohawk	-11.6544
▁Spanish	-11.6544
▁envi	-11.6544
▁daytime	-11.6544
▁Feldhockey	-11.6544
▁Griff	-11.6544
▁Sporthalle	-11.6544
▁Klapp	-11.6544
▁Schwein	-11.6545
▁rack	-11.6545
▁stance	-11.6545
▁conductor	-11.6545
lammen	-11.6545
▁Rod	-11.6545
▁Busses	-11.6545
richter	-11.6545
▁Holzbrett	-11.6545
▁hellgrünen	-11.6545
orgi	-11.6546
▁Fischmarkt	-11.6546
▁Mopp	-11.6546
▁Baseballfeld	-11.6546
▁shout	-11.6546
▁pony	-11.6547
▁flock	-11.6548
▁OP	-11.6548
▁Osten	-11.6548
▁ausgeschnittene	-11.6548
▁Steinbank	-11.6549
ällen	-11.6549
▁Straßenrennen	-11.6549
▁cries	-11.6549
▁capture	-11.655
▁Straßenbahn	-11.655
▁stretches	-11.6551
▁cord	-11.6551
wiese	-11.6551
badet	-11.6552
▁Kopfstein	-11.6552
▁Lenk	-11.6555
▁projector	-11.6556
▁company	-11.6556
▁Stadtpark	-11.6556
zuhören	-11.6556
▁Waffel	-11.6557
▁Wasch	-11.6557
▁segel	-11.6558
▁lion	-11.6558
▁bridesmaid	-11.6558
▁baton	-11.656
▁split	-11.6561
gestürzte	-11.6565
▁Kick	-11.6565
▁Mich	-11.6568
▁herrliche	-11.657
▁pig	-11.657
foam	-11.6574
haltung	-11.6576
lender	-11.6576
▁tell	-11.6582
lime	-11.6587
arbie	-11.6591
▁Big	-11.6594
▁logo	-11.6608
ugging	-11.6611
▁sortiert	-11.6627
Rad	-11.6636
Turnier	-11.6641
▁suck	-11.6652
▁indianische	-11.6653
zusehen	-11.6675
▁complet	-11.6708
▁poke	-11.6714
▁verleg	-11.6728
▁hellrote	-11.6731
▁türkise	-11.6765
▁weigh	-11.6791
suche	-11.6806
▁entwe	-11.6821
gefallene	-11.6826
▁hellgelbe	-11.6839
gabe	-11.6869
feier	-11.6906
▁butt	-11.6925
Grand	-11.6956
cla	-11.7031
▁Pri	-11.7038
▁farb	-11.7072
▁rid	-11.7138
Fallschirmspring	-11.7298
▁Spitz	-11.7317
▁mini	-11.7397
▁gefallen	-11.7443
▁equ	-11.7455
lanke	-11.7493
ippe	-11.7503
▁Geste	-11.7584
▁Stadtszene	-11.7623
▁strik	-11.7669
▁türkis	-11.77
graue	-11.7788
holt	-11.7869
▁Häuser	-11.7872
▁Palme	-11.7873
skier	-11.7875
▁organ	-11.7875
plane	-11.7877
tunnel	-11.7883
break	-11.7883
Trikot	-11.7883
Wagen	-11.7884
shape	-11.7884
Park	-11.7884
camera	-11.7884
▁Sommerkleid	-11.7884
durch	-11.7885
▁weld	-11.7889
The	-11.7893
statt	-11.7904
▁bring	-11.7917
▁fog	-11.7922
unterricht	-11.7925
arents	-11.7926
▁Gleis	-11.793
▁bärtige	-11.7932
▁Schnu	-11.7933
körper	-11.7942
time	-11.7946
▁flow	-11.7953
gestreckt	-11.7958
▁slip	-11.7961
▁Flag	-11.7966
onfetti	-11.7968
ustomers	-11.7968
▁Euro	-11.7968
runette	-11.7968
embers	-11.7968
asino	-11.7968
▁Halb	-11.7968
▁Plüsch	-11.7969
▁Möbel	-11.7969
stadt	-11.7969
▁Fliesen	-11.7969
tänzer	-11.797
cept	-11.797
▁Highschool	-11.797
▁aufgeblasen	-11.797
▁Einrichtung	-11.797
▁Eisschnelll	-11.797
▁Information	-11.797
▁Ultimate	-11.797
▁grüß	-11.797
▁tumbl	-11.797
Gesichtsausdruck	-11.797
Kämpfer	-11.797
Vogelperspektive	-11.797
blatt	-11.797
bläser	-11.797
bühne	-11.797
grube	-11.797
ilitärangehörige	-11.797
mittelalterliche	-11.797
plattform	-11.797
schlange	-11.797
schlitten	-11.797
▁Alkohol	-11.797
▁Baskenmütze	-11.797
▁Baumstämmen	-11.797
▁Begriff	-11.797
▁Betonstufen	-11.797
▁Blazer	-11.797
▁Brautjungfern	-11.797
▁Broschüre	-11.797
▁Bücherregal	-11.797
▁Demonstration	-11.797
▁Dinosaurier	-11.797
▁Dschungel	-11.797
▁Ereignis	-11.797
▁Felsformation	-11.797
▁Felsklippe	-11.797
▁Friedenszeichen	-11.797
▁Geldbeutel	-11.797
▁Gesellschaft	-11.797
▁Getreide	-11.797
▁Gletscher	-11.797
▁Gokart	-11.797
▁Habseligkeiten	-11.797
▁Huhn	-11.797
▁Kaninchen	-11.797
▁Kunstgalerie	-11.797
▁Können	-11.797
▁Lautsprecher	-11.797
▁Löwen	-11.797
▁Mülltüte	-11.797
▁Nachmittag	-11.797
▁Ochsen	-11.797
▁Pfote	-11.797
▁Pinsel	-11.797
▁Pizzeria	-11.797
▁Preis	-11.797
▁SUV	-11.797
▁Schwebebalken	-11.797
▁Staffelei	-11.797
▁Stammeskleidung	-11.797
▁Tankstelle	-11.797
▁Tauziehen	-11.797
▁Tempel	-11.797
▁Terrier	-11.797
▁Toiletten	-11.797
▁Töpferware	-11.797
▁Vegas	-11.797
▁Wandmalerei	-11.797
▁Züge	-11.797
▁activities	-11.797
▁aufgesetzte	-11.797
▁bleiben	-11.797
▁bleibt	-11.797
▁bodysuit	-11.797
▁buffet	-11.797
▁bulldozer	-11.797
▁cathedral	-11.797
▁citizen	-11.797
▁competitive	-11.797
▁elaborate	-11.797
▁embrace	-11.797
▁exercising	-11.797
▁expans	-11.797
▁extreme	-11.797
▁faulenzt	-11.797
▁fedora	-11.797
▁geflie	-11.797
▁gepolsterte	-11.797
▁gießen	-11.797
▁harbor	-11.797
▁hochzuklettern	-11.797
▁holiday	-11.797
▁kümmern	-11.797
▁level	-11.797
▁lädt	-11.797
▁marsh	-11.797
▁mascot	-11.797
▁mattress	-11.797
▁meadow	-11.797
▁puppet	-11.797
▁reception	-11.797
▁schleift	-11.797
▁scientist	-11.797
▁seafood	-11.797
▁skydiving	-11.797
▁slacks	-11.797
▁somewhere	-11.797
▁steuert	-11.797
▁strahlend	-11.797
▁supermarket	-11.797
▁tablecloth	-11.797
▁temple	-11.797
▁terminal	-11.797
▁transit	-11.797
▁trophy	-11.797
▁trottet	-11.797
▁unbekannte	-11.797
▁verschwommen	-11.797
▁videotap	-11.797
▁wilderness	-11.797
▁zahlreiche	-11.797
▁zielt	-11.797
▁zugewandt	-11.797
Aufkleber	-11.797
Guitar	-11.797
▁Bagger	-11.797
▁Barkeeper	-11.797
▁Filz	-11.797
▁Fleck	-11.797
▁Mickey	-11.797
▁Speisekarte	-11.797
▁Violett	-11.797
▁Zitrone	-11.797
▁Zuhörer	-11.797
▁gehüllt	-11.797
▁gesichert	-11.797
▁major	-11.797
▁patrioti	-11.797
▁polish	-11.797
▁professionell	-11.797
▁snorkel	-11.797
▁zombie	-11.797
räumen	-11.797
ufdruck	-11.797
▁Element	-11.797
▁Gewicht	-11.797
▁Graben	-11.797
▁beeindrucken	-11.797
▁beendet	-11.797
▁buckelnde	-11.797
▁conveni	-11.797
▁double	-11.797
▁hackt	-11.797
▁kaputte	-11.797
▁lackiert	-11.797
▁lush	-11.797
▁maybe	-11.797
▁pancake	-11.797
▁plow	-11.797
▁report	-11.797
▁Schmink	-11.797
▁Schwester	-11.797
▁backseat	-11.797
▁bongo	-11.797
▁leitet	-11.797
▁richtig	-11.797
▁steinerne	-11.797
ashore	-11.797
▁regelt	-11.797
cient	-11.797
spiegel	-11.797
▁broad	-11.797
▁expos	-11.797
▁Gesichtsmaske	-11.797
gegend	-11.797
▁Island	-11.797
▁Säge	-11.797
▁Zebrastreifen	-11.797
fällig	-11.797
nblick	-11.797
▁Bongo	-11.797
▁Leucht	-11.797
▁religiöse	-11.797
▁Pult	-11.797
▁Versuch	-11.797
▁abgesperrt	-11.797
▁downhill	-11.797
▁Dark	-11.797
▁Innenhof	-11.797
▁trotting	-11.797
ordnet	-11.797
▁Modellflugzeug	-11.797
▁abgedunkelte	-11.797
▁miniature	-11.797
▁weinende	-11.797
▁Krone	-11.797
▁Neon	-11.797
▁visor	-11.797
▁Backsteinstraße	-11.797
▁Pflasterstraße	-11.797
▁interessante	-11.797
▁resort	-11.797
faltet	-11.797
▁mounted	-11.797
▁Großstadt	-11.797
▁Ruderboot	-11.797
▁historic	-11.797
▁nipp	-11.797
▁sidelines	-11.797
▁Kanal	-11.797
▁sister	-11.797
▁Töpfe	-11.797
▁Felsblock	-11.797
▁mule	-11.797
▁Innenraum	-11.797
eval	-11.797
▁mexikanische	-11.797
▁Renaissance	-11.797
▁paw	-11.797
trümpfe	-11.797
▁dessert	-11.797
▁Schuss	-11.797
▁gefärbte	-11.797
▁genau	-11.7971
▁zuhause	-11.7971
▁geschrieben	-11.7971
▁Seitenlinie	-11.7971
▁Fassade	-11.7971
▁search	-11.7971
▁crops	-11.7971
▁Tutu	-11.7971
Anzeige	-11.7971
▁oil	-11.7971
▁Kuss	-11.7971
▁Ringkampf	-11.7971
▁mehr	-11.7971
▁Torbogen	-11.7971
▁lanterns	-11.7971
▁Sims	-11.7971
▁Kinn	-11.7971
▁oar	-11.7971
▁Schauspieler	-11.7971
▁Geländefahrzeug	-11.7971
▁winken	-11.7972
ffnung	-11.7972
▁Betonplatte	-11.7972
▁Konfetti	-11.7972
▁casino	-11.7972
▁demonstration	-11.7972
▁Wintertag	-11.7972
▁Radio	-11.7972
▁social	-11.7972
▁message	-11.7972
▁Vorstellung	-11.7972
▁weißhaarige	-11.7972
▁Fitness	-11.7973
▁Glastür	-11.7973
atik	-11.7973
▁Runde	-11.7973
▁Aufschlag	-11.7974
▁balg	-11.7974
▁clutch	-11.7974
▁spend	-11.7974
▁starring	-11.7974
▁Berglandschaft	-11.7975
▁Stelle	-11.7975
▁sunhat	-11.7975
▁woodland	-11.7975
▁skyline	-11.7975
▁Rockband	-11.7975
▁rustic	-11.7975
▁hinweg	-11.7975
▁shack	-11.7976
legged	-11.7976
▁Leben	-11.7976
▁getragen	-11.7976
▁Basketballfeld	-11.7977
▁Jew	-11.7977
▁Coll	-11.7977
▁binden	-11.7977
▁bump	-11.7978
▁Footballfeld	-11.7978
▁hochgehoben	-11.7979
▁send	-11.798
schenkt	-11.7985
Down	-11.7986
gebung	-11.7986
▁hour	-11.7987
chief	-11.7987
lipper	-11.7988
▁türkisfarbene	-11.7988
▁Wort	-11.7989
▁Neu	-11.7989
▁Kartenspiel	-11.7991
brot	-11.7993
▁blind	-11.7995
geräum	-11.7996
ution	-11.8005
▁award	-11.8005
▁Dart	-11.8009
▁schreiende	-11.801
gerollt	-11.8012
▁dunkelgrüne	-11.8017
▁squ	-11.802
Love	-11.8033
▁panel	-11.8033
▁puste	-11.8038
spekt	-11.8038
▁spik	-11.8048
▁zip	-11.8076
klasse	-11.8133
ätzen	-11.8179
BH	-11.8187
▁damage	-11.8206
kommende	-11.8239
getränk	-11.8381
EL	-11.8428
gefähr	-11.8472
equi	-11.8512
ngry	-11.8524
eitlich	-11.8559
rutscht	-11.8584
▁Radrenn	-11.8639
aube	-11.8656
▁stretch	-11.8679
capp	-11.869
storm	-11.8772
Oh	-11.8796
▁geschlagen	-11.8864
▁build	-11.8999
trio	-11.9079
▁angle	-11.9272
▁Freizeit	-11.9403
▁faci	-11.9425
hül	-11.9428
wheeler	-11.9444
▁pigeon	-11.946
▁etwa	-11.9465
arasailing	-11.9495
trainer	-11.9506
▁klein	-11.9517
bereit	-11.9539
▁Wände	-11.954
▁Kunde	-11.9541
hockey	-11.9545
flute	-11.9548
schaufel	-11.9549
student	-11.9549
position	-11.9549
steigt	-11.9549
finish	-11.9549
Konzert	-11.955
held	-11.955
filled	-11.955
outfit	-11.955
schneidet	-11.955
Auto	-11.955
▁pray	-11.9552
high	-11.9558
▁defend	-11.9567
wettkampf	-11.9582
▁neb	-11.9602
zeichnung	-11.9616
▁attach	-11.9617
wache	-11.9618
▁ceremon	-11.9622
flugzeug	-11.9627
nsammlung	-11.9627
ohren	-11.963
▁Pho	-11.963
szene	-11.9631
oddler	-11.9632
uzzle	-11.9633
änteln	-11.9634
ilitary	-11.9635
eautiful	-11.9635
eworfen	-11.9635
kappe	-11.9635
lantern	-11.9635
▁Schreib	-11.9636
grund	-11.9636
▁Spazier	-11.9636
udiert	-11.9636
sportler	-11.9636
▁Wild	-11.9636
aufnahme	-11.9636
▁inflat	-11.9636
▁occurr	-11.9636
▁regenbogenfarb	-11.9636
ariachi	-11.9636
motiv	-11.9636
stronaut	-11.9636
▁Chirurg	-11.9636
▁Lieblings	-11.9636
▁Orient	-11.9636
▁Zauber	-11.9636
▁Zoo	-11.9636
▁competitor	-11.9636
▁elegant	-11.9636
▁frown	-11.9636
▁kommunizier	-11.9636
▁ornament	-11.9636
▁pflüg	-11.9636
▁scratch	-11.9636
▁üppig	-11.9636
Kulisse	-11.9636
Magazin	-11.9636
Olympia	-11.9636
brunnen	-11.9636
bündel	-11.9636
chaufensterpuppe	-11.9636
entgegengesetzte	-11.9636
gedruckt	-11.9636
geführt	-11.9636
gerahmte	-11.9636
gility	-11.9636
ietnames	-11.9636
indernisparcours	-11.9636
kapelle	-11.9636
komplex	-11.9636
leidenschaftlich	-11.9636
oberfläche	-11.9636
pflasterstraße	-11.9636
plakat	-11.9636
produkte	-11.9636
usdruck	-11.9636
vailable	-11.9636
werfer	-11.9636
▁Aquarium	-11.9636
▁Aufmerksamkeit	-11.9636
▁Berggipfel	-11.9636
▁Bleistift	-11.9636
▁Blumenstrauß	-11.9636
▁Bulldozer	-11.9636
▁Bänder	-11.9636
▁Bürste	-11.9636
▁Cowgirl	-11.9636
▁Cricket	-11.9636
▁Digitalkamera	-11.9636
▁Einkaufspassage	-11.9636
▁Fernrohr	-11.9636
▁Fingernägel	-11.9636
▁Fitnessstudio	-11.9636
▁Frühstück	-11.9636
▁Gänse	-11.9636
▁Hochzeitstorte	-11.9636
▁Hollister	-11.9636
▁Hubschrauber	-11.9636
▁Hydranten	-11.9636
▁Hörsaal	-11.9636
▁Hüpfburg	-11.9636
▁Joggen	-11.9636
▁Kampfkunst	-11.9636
▁Kathedrale	-11.9636
▁Kimono	-11.9636
▁Kopftücher	-11.9636
▁Küchentresen	-11.9636
▁Labrador	-11.9636
▁Leoparden	-11.9636
▁Liegestühlen	-11.9636
▁Limousine	-11.9636
▁Lippenstift	-11.9636
▁Maulkörben	-11.9636
▁Meeresfrüchte	-11.9636
▁Minigolf	-11.9636
▁Muschel	-11.9636
▁Nachtclub	-11.9636
▁Nadelstreifen	-11.9636
▁Professor	-11.9636
▁Promenade	-11.9636
▁Pyramide	-11.9636
▁Rasenmäher	-11.9636
▁Reporter	-11.9636
▁Rückwärtssalto	-11.9636
▁Sackhüpfen	-11.9636
▁Schlepp	-11.9636
▁Schädel	-11.9636
▁Schärpe	-11.9636
▁Seilspringen	-11.9636
▁Senioren	-11.9636
▁Spiderman	-11.9636
▁Spielmannszug	-11.9636
▁Stabhochsprung	-11.9636
▁Steuer	-11.9636
▁Strandpromenade	-11.9636
▁Textnachricht	-11.9636
▁Toyota	-11.9636
▁Wasserpistole	-11.9636
▁Weihnachten	-11.9636
▁Wunderkerze	-11.9636
▁Zuckerwatte	-11.9636
▁Zutaten	-11.9636
▁adventur	-11.9636
▁akrobatische	-11.9636
▁alcohol	-11.9636
▁ausgestopfte	-11.9636
▁befrei	-11.9636
▁begutachten	-11.9636
▁beschädigte	-11.9636
▁besetzte	-11.9636
▁breast	-11.9636
▁breath	-11.9636
▁brindle	-11.9636
▁brochure	-11.9636
▁bronco	-11.9636
▁cardigan	-11.9636
▁clarinet	-11.9636
▁coconut	-11.9636
▁cremefarbene	-11.9636
▁curious	-11.9636
▁dreckige	-11.9636
▁einkaufen	-11.9636
▁einzufangen	-11.9636
▁enclos	-11.9636
▁erwischt	-11.9636
▁ethnische	-11.9636
▁füttern	-11.9636
▁gemütlich	-11.9636
▁glacier	-11.9636
▁hamburger	-11.9636
▁irgendetwas	-11.9636
▁kaukasische	-11.9636
▁kehren	-11.9636
▁kiosk	-11.9636
▁komplizierte	-11.9636
▁lebhaft	-11.9636
▁lipstick	-11.9636
▁liquor	-11.9636
▁lustige	-11.9636
▁magnif	-11.9636
▁niedliche	-11.9636
▁nightclub	-11.9636
▁noodle	-11.9636
▁occup	-11.9636
▁olympische	-11.9636
▁operation	-11.9636
▁pflückt	-11.9636
▁plush	-11.9636
▁poncho	-11.9636
▁professor	-11.9636
▁progress	-11.9636
▁question	-11.9636
▁ravine	-11.9636
▁razor	-11.9636
▁recreat	-11.9636
▁relay	-11.9636
▁sausage	-11.9636
▁schattige	-11.9636
▁scissors	-11.9636
▁seesaw	-11.9636
▁senkrecht	-11.9636
▁servieren	-11.9636
▁sparkler	-11.9636
▁spatula	-11.9636
▁stöber	-11.9636
▁submerge	-11.9636
▁sunshine	-11.9636
▁supervis	-11.9636
▁symbol	-11.9636
▁trocknet	-11.9636
▁umgedrehte	-11.9636
▁verfolgen	-11.9636
▁windsurf	-11.9636
▁wineglasses	-11.9636
▁wolkige	-11.9636
▁zeichnen	-11.9636
amurai	-11.9636
▁Claus	-11.9636
▁Gentlem	-11.9636
▁Greyhound	-11.9636
▁Karneval	-11.9636
▁Limonade	-11.9636
▁Mega	-11.9636
▁Ocean	-11.9636
▁Ohrhörer	-11.9636
▁Oxford	-11.9636
▁Schloss	-11.9636
▁Superman	-11.9636
▁Tischtennis	-11.9636
▁Vorlesung	-11.9636
▁Wasserfontäne	-11.9636
▁barricade	-11.9636
▁bohrt	-11.9636
▁civil	-11.9636
▁cycle	-11.9636
▁durchsucht	-11.9636
▁geometri	-11.9636
▁normal	-11.9636
▁talent	-11.9636
▁wäre	-11.9636
Krieg	-11.9636
sponsor	-11.9636
▁Amboss	-11.9636
▁Berlin	-11.9636
▁Capri	-11.9636
▁Landkarte	-11.9636
▁Partner	-11.9636
▁SMS	-11.9636
▁Stände	-11.9636
▁Wii	-11.9636
▁bronze	-11.9636
▁defens	-11.9636
▁socializing	-11.9636
▁suburb	-11.9636
▁Empfang	-11.9636
▁Keks	-11.9636
▁quad	-11.9636
▁radio	-11.9636
anzeige	-11.9636
▁Garden	-11.9636
▁Milch	-11.9636
▁challeng	-11.9636
▁eager	-11.9636
▁husband	-11.9636
▁kostümierte	-11.9636
▁strickt	-11.9636
▁musizier	-11.9636
▁proud	-11.9636
▁Haarschnitt	-11.9636
▁Krug	-11.9636
▁bricht	-11.9636
▁freut	-11.9636
▁angeleint	-11.9636
▁sweet	-11.9636
▁Wanderweg	-11.9636
▁milk	-11.9636
▁utili	-11.9636
▁Salat	-11.9637
▁fireworks	-11.9637
▁platziert	-11.9637
▁vault	-11.9637
▁Dekorationen	-11.9637
▁Lakers	-11.9637
▁flaming	-11.9637
▁poliert	-11.9637
▁badge	-11.9637
▁intensiv	-11.9637
▁Ausflug	-11.9637
▁Haut	-11.9637
wärme	-11.9637
üstung	-11.9637
▁Gray	-11.9637
▁information	-11.9637
▁sash	-11.9637
rgert	-11.9637
▁Fahrgäste	-11.9637
▁Polizeibeamte	-11.9637
▁accept	-11.9637
▁Durchgang	-11.9637
abhängen	-11.9637
▁Bordsteinkante	-11.9637
▁chunk	-11.9637
▁piercing	-11.9637
▁Deli	-11.9637
▁Ausschau	-11.9637
▁Burg	-11.9637
▁Haken	-11.9637
▁Hasen	-11.9637
▁navigier	-11.9637
▁Minne	-11.9637
▁Krankenhausbett	-11.9637
▁Spazierstock	-11.9637
▁Steg	-11.9637
▁Camper	-11.9637
pullover	-11.9637
▁Kühe	-11.9637
▁Schotterstraße	-11.9637
▁Schwimmflügeln	-11.9637
▁Geschichte	-11.9637
▁Wettlauf	-11.9637
▁Open	-11.9637
▁applaudi	-11.9637
▁falsch	-11.9637
▁patrol	-11.9637
▁Kleinbus	-11.9637
▁Möbelstück	-11.9637
▁verrückt	-11.9637
▁knitting	-11.9637
▁Essenswagen	-11.9637
▁Schotterweg	-11.9637
▁master	-11.9637
ketch	-11.9637
▁Dreh	-11.9637
▁cowgirl	-11.9637
schiff	-11.9637
▁Motorboot	-11.9637
▁Fischerboot	-11.9637
sessel	-11.9637
▁Fußgängerbrücke	-11.9637
▁goatee	-11.9637
▁Außenseite	-11.9637
▁müde	-11.9637
▁Ebene	-11.9637
▁Kamin	-11.9637
▁limb	-11.9637
▁bequem	-11.9638
▁Dunkeln	-11.9638
▁belly	-11.9638
▁kurzhaarige	-11.9638
▁Schwimmhilfe	-11.9638
▁Bikinioberteil	-11.9638
▁kontrollier	-11.9638
▁puzzle	-11.9638
▁archway	-11.9638
ühlt	-11.9638
▁schält	-11.9638
aufführung	-11.9638
▁Spül	-11.9638
▁Innere	-11.9638
▁Schwanz	-11.9638
▁teilnimmt	-11.9638
▁zone	-11.9638
▁Golfplatz	-11.9638
▁Zune	-11.9638
▁assistant	-11.9638
schale	-11.9639
schaffen	-11.9639
helfe	-11.9639
▁awning	-11.9639
▁rise	-11.9639
▁Metallzaun	-11.9639
▁drift	-11.9639
▁wonder	-11.9639
▁massive	-11.9639
▁Taucheranzug	-11.964
▁BMW	-11.964
OI	-11.964
stride	-11.964
▁flood	-11.964
▁protestieren	-11.9641
▁instructor	-11.9641
▁react	-11.9642
▁Angestellte	-11.9642
▁karge	-11.9642
▁haul	-11.9643
▁pump	-11.9643
itness	-11.9644
▁Hacke	-11.9644
▁vermu	-11.9644
▁Ice	-11.9645
icherheitswesten	-11.9646
stunde	-11.9648
gäste	-11.9648
▁Plane	-11.9648
achete	-11.9649
▁ripp	-11.9649
▁Wartungsarbeite	-11.965
▁Comic	-11.9658
töpfe	-11.9658
Free	-11.9659
▁Famil	-11.966
▁brä	-11.9666
lötz	-11.9667
▁perche	-11.9675
▁bunn	-11.9688
▁wipe	-11.97
▁grip	-11.9702
▁Schere	-11.9703
▁Messe	-11.9704
▁hochkletter	-11.9709
rubs	-11.9711
▁chemi	-11.972
ennis	-11.9735
▁dunkelbraune	-11.9747
organis	-11.9778
ould	-11.9781
risk	-11.9791
▁wicke	-11.981
ascar	-11.9814
Jump	-11.9867
Freizeitkleidung	-11.9876
▁Loc	-11.9889
haps	-11.9912
gestell	-11.9929
gericht	-11.9995
▁Kla	-12.005
zenerie	-12.0091
harp	-12.0158
▁seltsam	-12.0164
foli	-12.0386
ivid	-12.0393
lpen	-12.049
streu	-12.0544
completed	-12.0591
lbernen	-12.0609
chaufensterfront	-12.0636
▁Golfspiel	-12.0744
▁gesäumt	-12.0781
almati	-12.0889
▁Scheinwerfer	-12.0995
lance	-12.1072
▁barbecu	-12.1074
▁slop	-12.1203
frikanische	-12.1224
▁Aktivität	-12.13
▁tätowier	-12.1366
hawk	-12.1378
▁hübsch	-12.1399
▁Training	-12.1461
▁pedestrian	-12.1461
▁backward	-12.1462
klettern	-12.1462
▁älter	-12.1479
skating	-12.152
fertige	-12.1537
▁Büsche	-12.1539
▁bewölkte	-12.1539
▁Kerze	-12.154
▁Rucksäcke	-12.154
▁Speise	-12.154
Mitarbeiter	-12.1547
Tattoo	-12.1548
monitor	-12.1548
Werbung	-12.1549
Ausrüstung	-12.1549
Tunnel	-12.1549
festival	-12.1549
Computer	-12.155
Restaurant	-12.155
Rennen	-12.155
restaurant	-12.155
Fahrrad	-12.1551
herum	-12.1551
karierte	-12.1552
bull	-12.1552
leckt	-12.1567
langen	-12.1573
zieh	-12.1576
flieger	-12.1579
▁brid	-12.1583
geschnittene	-12.1584
▁Backstein	-12.1585
▁Patient	-12.1597
räumt	-12.1598
▁Pitch	-12.1606
▁bewunder	-12.1615
▁arrange	-12.1615
▁multicolor	-12.1617
▁curl	-12.1623
raktor	-12.1627
orhüter	-12.1627
opcorn	-12.1634
trikot	-12.1634
lebt	-12.1635
loud	-12.1635
musik	-12.1635
▁Schotter	-12.1635
▁synchron	-12.1636
▁Pflaster	-12.1636
estrian	-12.1636
motorrad	-12.1636
dunkelte	-12.1636
▁Durch	-12.1636
▁Bürger	-12.1636
▁Reklame	-12.1636
echani	-12.1636
▁Irokesen	-12.1636
▁gespreizt	-12.1636
▁rustikal	-12.1636
▁tread	-12.1636
ürfel	-12.1636
▁Doktor	-12.1636
▁Kitesurf	-12.1636
▁Krabbe	-12.1636
▁Truthahn	-12.1636
▁bevölker	-12.1636
▁blossom	-12.1636
▁consult	-12.1636
▁errichtet	-12.1636
▁nibbl	-12.1636
▁schräg	-12.1636
▁umgekippt	-12.1636
Goalie	-12.1636
Maskottchen	-12.1636
Metallgegenstand	-12.1636
Offizier	-12.1636
Tintenfisch	-12.1636
auslage	-12.1636
eisenbahn	-12.1636
kissen	-12.1636
program	-12.1636
rädrige	-12.1636
röße	-12.1636
schaftskollegen	-12.1636
schleudert	-12.1636
sgesellschaft	-12.1636
stöckige	-12.1636
superman	-12.1636
terrasse	-12.1636
unruhige	-12.1636
ätzchen	-12.1636
▁Absatzschuhe	-12.1636
▁Absperrband	-12.1636
▁Abstammung	-12.1636
▁Bauernhof	-12.1636
▁Betrieb	-12.1636
▁Blätterhaufen	-12.1636
▁Coffee	-12.1636
▁Company	-12.1636
▁Cyclist	-12.1636
▁Dancers	-12.1636
▁Dessert	-12.1636
▁Dirigent	-12.1636
▁Dutzend	-12.1636
▁Elektri	-12.1636
▁Endzone	-12.1636
▁Fahrradreifen	-12.1636
▁Friedhof	-12.1636
▁Fässer	-12.1636
▁Führung	-12.1636
▁Garagentor	-12.1636
▁Gemeinde	-12.1636
▁Halfpipe	-12.1636
▁Handtücher	-12.1636
▁Huckepack	-12.1636
▁Husky	-12.1636
▁Höhle	-12.1636
▁Karikatur	-12.1636
▁Kastenwagen	-12.1636
▁Klarinette	-12.1636
▁Kleinigkeit	-12.1636
▁Kletterwand	-12.1636
▁Lobby	-12.1636
▁Material	-12.1636
▁Matratze	-12.1636
▁Mehl	-12.1636
▁Männliche	-12.1636
▁Operationssaal	-12.1636
▁Orangensaft	-12.1636
▁Photographer	-12.1636
▁Poncho	-12.1636
▁Programm	-12.1636
▁Riemen	-12.1636
▁Roboter	-12.1636
▁Schildkröte	-12.1636
▁Schusswaffe	-12.1636
▁Schwierigkeiten	-12.1636
▁Soldier	-12.1636
▁Sprache	-12.1636
▁Sprühfarbe	-12.1636
▁Staffellauf	-12.1636
▁Städtische	-12.1636
▁Surfen	-12.1636
▁Symbol	-12.1636
▁Söhne	-12.1636
▁Tauchausrüstung	-12.1636
▁Toreinfahrt	-12.1636
▁Tunik	-12.1636
▁Türeingang	-12.1636
▁UNICEF	-12.1636
▁Vorbereitung	-12.1636
▁Werkzeuggürtel	-12.1636
▁Wheelie	-12.1636
▁automobile	-12.1636
▁beaufsichtigt	-12.1636
▁befestigen	-12.1636
▁befragt	-12.1636
▁betrunken	-12.1636
▁blindfolded	-12.1636
▁bookshelf	-12.1636
▁bracelet	-12.1636
▁cartwheel	-12.1636
▁champagne	-12.1636
▁cockpit	-12.1636
▁community	-12.1636
▁contemplat	-12.1636
▁cruis	-12.1636
▁curtain	-12.1636
▁dafür	-12.1636
▁demonstrier	-12.1636
▁depict	-12.1636
▁detail	-12.1636
▁dolphin	-12.1636
▁dramatic	-12.1636
▁elbow	-12.1636
▁erzielen	-12.1636
▁erzählt	-12.1636
▁excitement	-12.1636
▁exciting	-12.1636
▁eyeglasses	-12.1636
▁fingernail	-12.1636
▁fireplace	-12.1636
▁funktioniert	-12.1636
▁geschnitzte	-12.1636
▁gestaltete	-12.1636
▁gesteckt	-12.1636
▁getrocknet	-12.1636
▁gewonnen	-12.1636
▁identical	-12.1636
▁irgendwelche	-12.1636
▁jackhammer	-12.1636
▁javelin	-12.1636
▁jüdische	-12.1636
▁klassische	-12.1636
▁knappe	-12.1636
▁kniehohe	-12.1636
▁lokale	-12.1636
▁merchant	-12.1636
▁monopoly	-12.1636
▁obdachlose	-12.1636
▁pacifier	-12.1636
▁participant	-12.1636
▁passerby	-12.1636
▁passionate	-12.1636
▁peacock	-12.1636
▁primitiv	-12.1636
▁pursu	-12.1636
▁refresh	-12.1636
▁rehears	-12.1636
▁represent	-12.1636
▁respond	-12.1636
▁robot	-12.1636
▁rowboat	-12.1636
▁rubble	-12.1636
▁rötliche	-12.1636
▁shelves	-12.1636
▁stolpert	-12.1636
▁stämmige	-12.1636
▁sweatsuit	-12.1636
▁süße	-12.1636
▁tiara	-12.1636
▁unidentifi	-12.1636
▁unknown	-12.1636
▁vegetation	-12.1636
▁verkehrsreiche	-12.1636
▁verloren	-12.1636
▁verteidigen	-12.1636
▁volunteer	-12.1636
▁watercraft	-12.1636
▁zebra	-12.1636
▁zerbrochene	-12.1636
▁übergroße	-12.1636
▁überwiegend	-12.1636
gefunden	-12.1636
gerissen	-12.1636
rincess	-12.1636
taught	-12.1636
ziegel	-12.1636
▁Abschluss	-12.1636
▁Aufwärmen	-12.1636
▁Ballbesitz	-12.1636
▁Bedienung	-12.1636
▁Buffet	-12.1636
▁Business	-12.1636
▁Denkmal	-12.1636
▁Front	-12.1636
▁Gabel	-12.1636
▁Gäste	-12.1636
▁Hochzeitsfeier	-12.1636
▁Jetski	-12.1636
▁Kayak	-12.1636
▁Kniestrümpfe	-12.1636
▁Kongress	-12.1636
▁Schaumbad	-12.1636
▁Schokolade	-12.1636
▁Weingläsern	-12.1636
▁Wissenschaftler	-12.1636
▁Wälder	-12.1636
▁Zehen	-12.1636
▁Zombie	-12.1636
▁apparatus	-12.1636
▁asphalt	-12.1636
▁curren	-12.1636
▁deutet	-12.1636
▁drunk	-12.1636
▁escape	-12.1636
▁happen	-12.1636
▁heißt	-12.1636
▁moos	-12.1636
▁possession	-12.1636
▁remote	-12.1636
▁scantily	-12.1636
▁shoeshine	-12.1636
▁tambourine	-12.1636
▁terrier	-12.1636
▁tightrope	-12.1636
Amerika	-12.1636
Kunstausstellung	-12.1636
album	-12.1636
jungf	-12.1636
owerpoint	-12.1636
▁Schottenr	-12.1636
▁Unterricht	-12.1636
▁abgewandt	-12.1636
▁canopy	-12.1636
▁clock	-12.1636
▁fluores	-12.1636
▁hechtet	-12.1636
▁kriech	-12.1636
▁peddl	-12.1636
▁priest	-12.1636
▁salad	-12.1636
▁stoßen	-12.1636
Twister	-12.1636
▁Esszimmer	-12.1636
▁Grouch	-12.1636
▁Haupt	-12.1636
▁carousel	-12.1636
▁salut	-12.1636
▁stecken	-12.1636
hnachtsgeschenke	-12.1636
kragen	-12.1636
sänger	-12.1636
uvre	-12.1636
▁Sturz	-12.1636
▁bergige	-12.1636
▁husky	-12.1636
▁leckere	-12.1636
▁sanft	-12.1636
▁sparse	-12.1636
▁verliert	-12.1636
balken	-12.1636
betrieben	-12.1636
schonern	-12.1636
triebs	-12.1636
▁Kutsche	-12.1636
▁Lappen	-12.1636
▁Schanze	-12.1636
▁Tennisbälle	-12.1636
▁campsite	-12.1636
▁gemischte	-12.1636
▁slab	-12.1636
▁whistle	-12.1636
gerüst	-12.1636
▁Riesen	-12.1636
▁metallic	-12.1636
▁Auszeichnung	-12.1636
▁Kanone	-12.1636
▁Kleidungsstücke	-12.1636
▁Stoß	-12.1636
▁garment	-12.1636
▁quilt	-12.1636
▁Diadem	-12.1636
▁cattle	-12.1636
▁operier	-12.1636
Motiv	-12.1637
▁bettelt	-12.1637
▁stricken	-12.1637
penguin	-12.1637
▁cinder	-12.1637
▁jogger	-12.1637
bude	-12.1637
▁Harfe	-12.1637
▁Power	-12.1637
▁bakery	-12.1637
▁impress	-12.1637
▁winzige	-12.1637
▁Hängebrücke	-12.1637
▁lenkt	-12.1637
▁retai	-12.1637
lowly	-12.1637
umgebung	-12.1637
▁Lead	-12.1637
▁pride	-12.1637
▁verteilen	-12.1637
▁Centr	-12.1637
▁Vieh	-12.1637
▁Ruinen	-12.1637
▁Tief	-12.1637
▁Chips	-12.1637
▁squirt	-12.1637
▁Trocken	-12.1637
▁Balletttänzer	-12.1637
▁Kleinstadt	-12.1637
schüttet	-12.1637
▁Stachel	-12.1637
▁Faust	-12.1637
▁arabische	-12.1637
dehnt	-12.1637
Objektiv	-12.1637
▁Blüte	-12.1637
▁übersäte	-12.1637
▁blass	-12.1637
▁cartoon	-12.1637
▁hedge	-12.1637
▁snake	-12.1637
▁gepflegte	-12.1637
wanderung	-12.1637
Kitty	-12.1637
▁interess	-12.1637
source	-12.1637
▁trommelt	-12.1637
▁Backsteinwand	-12.1637
▁contin	-12.1637
schwarm	-12.1637
▁graduati	-12.1637
▁strum	-12.1637
▁Fliesenboden	-12.1637
ngesicht	-12.1637
▁Hafengebiet	-12.1637
▁bummel	-12.1637
▁Indische	-12.1637
▁trap	-12.1637
▁ruins	-12.1637
▁zupft	-12.1637
▁answer	-12.1637
famili	-12.1638
▁gedeckt	-12.1638
leece	-12.1638
▁peel	-12.1638
▁lausch	-12.1638
▁chil	-12.1638
▁Lehm	-12.1638
bieten	-12.1638
▁Itali	-12.1638
▁strawberr	-12.1638
▁meditat	-12.1638
amara	-12.1638
kurv	-12.1638
▁assort	-12.1638
▁rundes	-12.1638
▁solid	-12.1638
Pinguin	-12.1638
Schwamm	-12.1639
▁menschliche	-12.1639
ograph	-12.1639
▁Werk	-12.1639
▁tausch	-12.1639
norak	-12.1639
nüss	-12.1639
▁Hecke	-12.164
▁amaz	-12.1641
▁durchsichtige	-12.1641
▁Säcke	-12.1643
▁antike	-12.1643
▁eigene	-12.1643
ssenger	-12.1644
leute	-12.1644
kugel	-12.1646
gurt	-12.1648
schnee	-12.165
▁Taste	-12.1652
▁medal	-12.1652
Truck	-12.1659
▁malerische	-12.1661
pplies	-12.1669
quaint	-12.1669
feuer	-12.1695
▁Dritte	-12.1699
ateinamerikan	-12.1701
▁Stütz	-12.1714
Meter	-12.1722
▁Blöcke	-12.1723
▁prächtig	-12.1728
▁Hänge	-12.173
▁fashionabl	-12.1781
gebilde	-12.1832
▁dye	-12.1845
rbeitsplatz	-12.1876
▁Ausführ	-12.1913
ottis	-12.1926
ailing	-12.2028
▁betreib	-12.2301
cheinwerferlicht	-12.2322
issue	-12.2338
▁bedruckt	-12.2338
postal	-12.2351
ortable	-12.2402
befördert	-12.2545
▁Dreiräder	-12.2626
geschlagene	-12.267
springer	-12.2692
adles	-12.2763
stretched	-12.2793
gerichtete	-12.2857
coal	-12.2886
ufgeregte	-12.2915
gefüllte	-12.2944
▁Trockne	-12.2944
rennbahn	-12.2947
▁Trop	-12.2977
Doo	-12.3027
guards	-12.3071
goldene	-12.3135
▁Schleif	-12.3306
trupp	-12.3468
bringt	-12.3513
▁brünett	-12.3584
▁gefäl	-12.3903
▁bewach	-12.393
absperrung	-12.3934
presst	-12.4
wöl	-12.4013
▁langärmelige	-12.4038
bietet	-12.4047
Video	-12.4047
Kugel	-12.4048
Texas	-12.4048
Wettbewerb	-12.4048
baby	-12.4049
cool	-12.4049
gesäumte	-12.4049
runner	-12.405
Roll	-12.405
tattoo	-12.405
Künstler	-12.405
hellbraune	-12.405
screen	-12.405
Schuhen	-12.405
Veranstaltung	-12.405
Volleyball	-12.405
Sport	-12.405
Laden	-12.405
schlägt	-12.405
Fußballspieler	-12.405
Gebäude	-12.405
Shorts	-12.405
Jacke	-12.4051
Feld	-12.4051
Gruppe	-12.4051
zuschauen	-12.4051
white	-12.4051
pink	-12.4051
ficial	-12.4058
▁schreien	-12.4063
gebracht	-12.4073
▁Eiscrem	-12.4084
▁Teenage	-12.4097
stände	-12.4098
wasch	-12.4098
riends	-12.4102
flügel	-12.4103
ircus	-12.4106
▁plansch	-12.4115
▁Saiten	-12.412
ngerichtet	-12.413
▁blank	-12.4134
ußballspiel	-12.4134
haften	-12.4134
rünette	-12.4135
ärtiger	-12.4135
blumen	-12.4136
hauer	-12.4136
mergency	-12.4136
xcited	-12.4136
hafen	-12.4136
ulture	-12.4136
▁Zebra	-12.4136
ografie	-12.4136
utfielder	-12.4136
auptsä	-12.4136
berqueren	-12.4136
▁Atlanta	-12.4136
Freiheitsstatue	-12.4136
geknöpft	-12.4136
▁Krokodil	-12.4136
▁physi	-12.4136
▁triangle	-12.4136
OME	-12.4136
mpanadas	-12.4136
stimmung	-12.4136
▁Augenbraue	-12.4136
▁Berufs	-12.4136
▁Elektro	-12.4136
▁Engine	-12.4136
▁Frühling	-12.4136
▁Kunsthandwerk	-12.4136
▁Reinigungs	-12.4136
▁Sprinkler	-12.4136
▁Turnübung	-12.4136
▁bloom	-12.4136
▁cluster	-12.4136
▁crush	-12.4136
▁merkwürdig	-12.4136
▁pounc	-12.4136
▁schwanger	-12.4136
▁zugedeckt	-12.4136
Barbecue	-12.4136
Briefkasten	-12.4136
Cyclone	-12.4136
Farbstiften	-12.4136
Frauenvolleyball	-12.4136
Grundschulkinder	-12.4136
Markierung	-12.4136
Monitor	-12.4136
Planschbecken	-12.4136
abradoodle	-12.4136
altestelle	-12.4136
beleuchtung	-12.4136
chnappschuss	-12.4136
crabble	-12.4136
credibl	-12.4136
dolescent	-12.4136
eheimnis	-12.4136
ettungsschwimmer	-12.4136
geschirr	-12.4136
geschnallt	-12.4136
isenbahnschienen	-12.4136
journal	-12.4136
käfig	-12.4136
kühlen	-12.4136
letterausrüstung	-12.4136
manövriert	-12.4136
möbeln	-12.4136
ortillas	-12.4136
prühdose	-12.4136
rancisco	-12.4136
schlüssel	-12.4136
temporary	-12.4136
uadraten	-12.4136
undschaft	-12.4136
vermählte	-12.4136
wänden	-12.4136
zufinden	-12.4136
▁Abenddämmerung	-12.4136
▁Akrobati	-12.4136
▁Alaska	-12.4136
▁Angelschnur	-12.4136
▁Ausblick	-12.4136
▁Backware	-12.4136
▁Baltimore	-12.4136
▁Bandkolleg	-12.4136
▁Basketbälle	-12.4136
▁Bassgitarre	-12.4136
▁Benzin	-12.4136
▁Bärten	-12.4136
▁Bürgerkriegs	-12.4136
▁California	-12.4136
▁Challenge	-12.4136
▁Chinatown	-12.4136
▁Cockpit	-12.4136
▁Crocs	-12.4136
▁Dokument	-12.4136
▁Drähten	-12.4136
▁Ehemann	-12.4136
▁Elektrogitarre	-12.4136
▁Essstäbchen	-12.4136
▁Factory	-12.4136
▁Felsenklippe	-12.4136
▁Fundament	-12.4136
▁Gabelstapler	-12.4136
▁Gasmaske	-12.4136
▁Gebäck	-12.4136
▁Gedanken	-12.4136
▁Gerätschaften	-12.4136
▁Gestrüpp	-12.4136
▁Glatzenansatz	-12.4136
▁Happen	-12.4136
▁Harmonika	-12.4136
▁Hausaufgaben	-12.4136
▁Heineken	-12.4136
▁Hockeyschläger	-12.4136
▁Holzkohle	-12.4136
▁Holzpfahl	-12.4136
▁Hopper	-12.4136
▁Hölle	-12.4136
▁Individual	-12.4136
▁Iowa	-12.4136
▁James	-12.4136
▁Jogginghose	-12.4136
▁Karaoke	-12.4136
▁Kawasaki	-12.4136
▁Kickboxen	-12.4136
▁Knochen	-12.4136
▁Kokosnüsse	-12.4136
▁Kunstmuseum	-12.4136
▁Kälte	-12.4136
▁Langarmhemd	-12.4136
▁Leotard	-12.4136
▁Liegestütze	-12.4136
▁Löcher	-12.4136
▁Maiskolben	-12.4136
▁Meeresufer	-12.4136
▁Miniatur	-12.4136
▁Mundharmonika	-12.4136
▁Mütter	-12.4136
▁Needle	-12.4136
▁Notebook	-12.4136
▁Ordnung	-12.4136
▁Papiertüte	-12.4136
▁Pendler	-12.4136
▁Picture	-12.4136
▁Poolbillard	-12.4136
▁Prüfung	-12.4136
▁Ribbon	-12.4136
▁Schindel	-12.4136
▁Schläfchen	-12.4136
▁Schläuche	-12.4136
▁Schneidebrett	-12.4136
▁Schokoladeneis	-12.4136
▁Seahawks	-12.4136
▁Skipiste	-12.4136
▁Skyline	-12.4136
▁Sombrero	-12.4136
▁Sonnenschein	-12.4136
▁Spagat	-12.4136
▁Sportereignis	-12.4136
▁Strafzettel	-12.4136
▁Strickjacke	-12.4136
▁Stäbchen	-12.4136
▁Swimmer	-12.4136
▁Tambo	-12.4136
▁Teammitglied	-12.4136
▁Telefonmasten	-12.4136
▁Truppe	-12.4136
▁Töpferscheibe	-12.4136
▁UFC	-12.4136
▁Universität	-12.4136
▁Unterstützung	-12.4136
▁Verstärker	-12.4136
▁Windsurfe	-12.4136
▁Wörter	-12.4136
▁Zentrum	-12.4136
▁abzuwehren	-12.4136
▁aircraft	-12.4136
▁angelehnt	-12.4136
▁apparel	-12.4136
▁aufgemalt	-12.4136
▁balconies	-12.4136
▁beleibte	-12.4136
▁besprechen	-12.4136
▁breitkrempigen	-12.4136
▁brief	-12.4136
▁bügelt	-12.4136
▁cafeteria	-12.4136
▁chubby	-12.4136
▁cityscape	-12.4136
▁consider	-12.4136
▁convertible	-12.4136
▁crutches	-12.4136
▁diskutiert	-12.4136
▁dominoes	-12.4136
▁empor	-12.4136
▁erhebt	-12.4136
▁erklärt	-12.4136
▁extravagant	-12.4136
▁flexible	-12.4136
▁fliederfarbene	-12.4136
▁footbridge	-12.4136
▁foundation	-12.4136
▁französische	-12.4136
▁freuen	-12.4136
▁freundlich	-12.4136
▁frolic	-12.4136
▁frustrated	-12.4136
▁frustriert	-12.4136
▁galoppier	-12.4136
▁geduckt	-12.4136
▁gefilmt	-12.4136
▁gelandet	-12.4136
▁geneigte	-12.4136
▁gescheckte	-12.4136
▁getupfte	-12.4136
▁glitzernde	-12.4136
▁gähnt	-12.4136
▁health	-12.4136
▁heiraten	-12.4136
▁herausragen	-12.4136
▁hispanic	-12.4136
▁hopscotch	-12.4136
▁identisch	-12.4136
▁international	-12.4136
▁jewelery	-12.4136
▁jugendliche	-12.4136
▁kettle	-12.4136
▁kostet	-12.4136
▁kuschel	-12.4136
▁liebkost	-12.4136
▁locomotive	-12.4136
▁lötet	-12.4136
▁mascara	-12.4136
▁megaphone	-12.4136
▁mermaid	-12.4136
▁motorboat	-12.4136
▁musikalische	-12.4136
▁muslimische	-12.4136
▁möglich	-12.4136
▁neigt	-12.4136
▁octopus	-12.4136
▁paintbrush	-12.4136
▁pebbl	-12.4136
▁piggyback	-12.4136
▁pineapple	-12.4136
▁poverty	-12.4136
▁prevent	-12.4136
▁prizes	-12.4136
▁prun	-12.4136
▁prunkvolle	-12.4136
▁renovier	-12.4136
▁satchel	-12.4136
▁schlummert	-12.4136
▁screwdriver	-12.4136
▁seaweed	-12.4136
▁senffarbene	-12.4136
▁sheepdog	-12.4136
▁steaks	-12.4136
▁studies	-12.4136
▁substance	-12.4136
▁sumpfige	-12.4136
▁swimwear	-12.4136
▁technique	-12.4136
▁technology	-12.4136
▁terrace	-12.4136
▁thread	-12.4136
▁trombone	-12.4136
▁ukulele	-12.4136
▁ungepflegte	-12.4136
▁unison	-12.4136
▁unterbricht	-12.4136
▁verhindern	-12.4136
▁verzerrte	-12.4136
▁vorliest	-12.4136
▁workbench	-12.4136
▁zerrissene	-12.4136
Kiosk	-12.4136
cific	-12.4136
lalom	-12.4136
oskop	-12.4136
pproximate	-12.4136
sprecher	-12.4136
▁Apparat	-12.4136
▁Brazil	-12.4136
▁Castro	-12.4136
▁Einheimische	-12.4136
▁Fähr	-12.4136
▁Gebirge	-12.4136
▁Gehörschutz	-12.4136
▁Insekt	-12.4136
▁Latzhose	-12.4136
▁Leichtathlet	-12.4136
▁Lokomotive	-12.4136
▁Metzger	-12.4136
▁Mittelalter	-12.4136
▁Paintball	-12.4136
▁Pfahl	-12.4136
▁Pickup	-12.4136
▁Pokemon	-12.4136
▁Presslufth	-12.4136
▁SWAT	-12.4136
▁Scheitel	-12.4136
▁Schneider	-12.4136
▁Scooby	-12.4136
▁Spielzeugpferd	-12.4136
▁Steinstufen	-12.4136
▁Sumoringe	-12.4136
▁Technik	-12.4136
▁Toast	-12.4136
▁Zwilling	-12.4136
▁breakdance	-12.4136
▁gleiten	-12.4136
▁hämmer	-12.4136
▁improv	-12.4136
▁knietief	-12.4136
▁landmark	-12.4136
▁metropoli	-12.4136
▁miniskirt	-12.4136
▁sauce	-12.4136
▁skeleton	-12.4136
▁sombrero	-12.4136
▁unwrap	-12.4136
▁weave	-12.4136
stadion	-12.4136
wanderweg	-12.4136
zuschlagen	-12.4136
▁Anlass	-12.4136
▁Calvin	-12.4136
▁Elektronik	-12.4136
▁Hochzeitsfoto	-12.4136
▁Korean	-12.4136
▁Packung	-12.4136
▁Podest	-12.4136
▁Puma	-12.4136
▁architectur	-12.4136
▁bookbag	-12.4136
▁bookstore	-12.4136
▁element	-12.4136
▁flüster	-12.4136
▁guest	-12.4136
▁magic	-12.4136
▁mechanische	-12.4136
▁napkin	-12.4136
▁prahl	-12.4136
World	-12.4136
▁Jesus	-12.4136
▁Kapuzenjacke	-12.4136
▁MMA	-12.4136
▁Martin	-12.4136
▁Pinien	-12.4136
▁llama	-12.4136
▁sunrise	-12.4136
veteran	-12.4136
▁Henna	-12.4136
▁Kombi	-12.4136
▁diaper	-12.4136
▁Krücken	-12.4136
▁Küchentheke	-12.4136
▁Pokal	-12.4136
▁Scout	-12.4136
pfanne	-12.4136
rayola	-12.4136
▁Bierflaschen	-12.4136
▁Burka	-12.4136
▁flatbed	-12.4136
stufe	-12.4136
▁buoy	-12.4136
▁jug	-12.4136
regnant	-12.4137
ristall	-12.4137
▁Earth	-12.4137
▁deutlich	-12.4137
▁kickboxing	-12.4137
▁verstreut	-12.4137
▁Fäuste	-12.4137
▁Gyro	-12.4137
▁Horse	-12.4137
▁Nacken	-12.4137
▁Schneewehe	-12.4137
▁gehören	-12.4137
▁Enkel	-12.4137
▁Stepp	-12.4137
▁Leitung	-12.4137
▁Maulesel	-12.4137
▁Story	-12.4137
▁duscht	-12.4137
▁erwischen	-12.4137
▁final	-12.4137
alcon	-12.4137
gierig	-12.4137
prallen	-12.4137
▁Marine	-12.4137
▁spiral	-12.4137
abrio	-12.4137
rudel	-12.4137
▁notice	-12.4137
▁origin	-12.4137
▁outfielder	-12.4137
▁parasol	-12.4137
▁saust	-12.4137
▁rasieren	-12.4137
▁Ananas	-12.4137
▁Matsch	-12.4137
▁sponge	-12.4137
▁melon	-12.4137
▁spear	-12.4137
▁simpl	-12.4137
kko	-12.4137
▁Tuba	-12.4137
▁horizontal	-12.4137
▁Colorful	-12.4137
willig	-12.4137
Hippie	-12.4137
▁repel	-12.4137
itrine	-12.4137
▁grinsende	-12.4137
bdeckung	-12.4137
▁stutz	-12.4138
reizt	-12.4138
▁Houst	-12.4138
▁Katzenbab	-12.4138
▁Falke	-12.4138
▁Barriere	-12.4139
fortun	-12.4139
nsetzt	-12.4139
Airways	-12.414
▁hügelige	-12.414
▁Kino	-12.4141
Touch	-12.4142
▁save	-12.4142
Court	-12.4142
reinig	-12.4143
gegangen	-12.4143
▁grob	-12.4143
höhe	-12.4144
stocher	-12.4145
Piercing	-12.4146
chipper	-12.415
AGA	-12.415
ACE	-12.4152
▁Darstell	-12.4153
▁glanc	-12.4159
ongoli	-12.416
Phone	-12.4161
ohlen	-12.4162
Pants	-12.417
panisch	-12.417
Industriegebäude	-12.4177
Paris	-12.4177
eburtstagskuchen	-12.4179
abgelassen	-12.4216
chichten	-12.4226
▁gestric	-12.4239
panish	-12.4242
▁Justi	-12.4304
bagger	-12.4306
yeliner	-12.4326
▁goldgelbe	-12.435
overalls	-12.4393
▁rappe	-12.4462
Afroamerikanerin	-12.452
heruntergefallen	-12.4545
crop	-12.459
▁kiddi	-12.4665
haut	-12.4798
Armee	-12.4832
builder	-12.5075
Akkordeonspieler	-12.5431
treiben	-12.6293
Pain	-12.6348
▁navigat	-12.6907
addresses	-12.7023
▁leuchten	-12.7265
▁träg	-12.7279
▁onlooker	-12.7298
prächtige	-12.7308
Geländefahr	-12.7318
▁Gläser	-12.7372
▁gepunktete	-12.7372
▁Africa	-12.7376
Klasse	-12.7381
Sandplatz	-12.7381
füttert	-12.7382
Arena	-12.7382
Plakat	-12.7382
Wettkampf	-12.7383
climb	-12.7383
daughter	-12.7383
Flugzeug	-12.7383
marathon	-12.7383
Maschine	-12.7383
Uniform	-12.7384
trinken	-12.7384
städtische	-12.7384
Schaukel	-12.7384
Tasche	-12.7384
basketball	-12.7384
trägt	-12.7384
▁scream	-12.7385
▁study	-12.7385
▁Industrie	-12.7414
etriever	-12.7429
▁Wartungs	-12.7439
▁langärm	-12.746
▁Karussel	-12.7464
kontroll	-12.7466
▁graffit	-12.7467
schriebene	-12.7468
händler	-12.7468
enaissance	-12.7468
polizist	-12.7469
Schlagman	-12.7469
amerikaner	-12.7469
▁Neoprenanz	-12.7469
ärmeligen	-12.747
▁Leichtathletik	-12.747
sperrt	-12.747
fiziellen	-12.747
apparat	-12.747
▁Einzelhandel	-12.747
▁absolvier	-12.747
▁prakti	-12.747
▁recycl	-12.747
rchaeologi	-12.747
▁Buntstift	-12.747
▁Camel	-12.747
▁Cheese	-12.747
▁Elasthan	-12.747
▁Flugbegleit	-12.747
▁Heimatland	-12.747
▁Heimwerker	-12.747
▁Jonglier	-12.747
▁Latexhandschuh	-12.747
▁Pflege	-12.747
▁Road	-12.747
▁Sicherungsseil	-12.747
Z	-14.43
